int32_t weight[] = {
0x3AC9040F,
0x00000030,
0x302DE3EF,
0x0000002B,
0xD9020916,
0x00000031,
0xF4CADFD1,
0x000000E6,
0xFADF29F3,
0x00000024,
0xBC1DD90E,
0x00000004,
0x10DA1DF2,
0x00000026,
0x1EF6B6D5,
0x000000FE,
0x4A1E01FE,
0x0000001F,
0x2C31FECF,
0x00000000,
0x0E32F113,
0x00000003,
0x12243DE3,
0x000000EC,
0xD3FC3037,
0x000000DD,
0xF41BFF4A,
0x000000ED,
0xF3CF1029,
0x00000006,
0xCC022932,
0x000000F2,
0x0F280902,
0x00000027,
0x2147E9F7,
0x00000036,
0x00E513EE,
0x00000003,
0xC7E3CDE1,
0x000000E2,
0x002DEB01,
0x00000064,
0xF0C2EE41,
0x000000E3,
0xDFBBD2E9,
0x000000DA,
0xFA0021E8,
0x000000F9,
0x4751381B,
0x00000019,
0x010FE138,
0x00000044,
0xD4E6C40F,
0x00000037,
0xE1BDE13D,
0x000000EC,
0x14B3F97F,
0x0000000B,
0xF71C4610,
0x000000F9,
0x02EBF908,
0x0000002A,
0x1B2C11F7,
0x0000000D,
0x04251D01,
0x000000D4,
0xC28188A3,
0x000000E6,
0x1C150EF3,
0x00000009,
0x3B3301DD,
0x0000000E,
0xDAF3F4B9,
0x000000D2,
0xE4BAB2BE,
0x000000F8,
0x0A302F19,
0x0000000A,
0xFE162820,
0x000000F3,
0x0C01F303,
0x00000029,
0x12E2D3B9,
0x00000027,
0xB4AC9F8A,
0x000000A1,
0xC3BAC7B1,
0x000000E1,
0xF4E700FC,
0x00000002,
0x01FDEFFA,
0x00000021,
0x2B2F2103,
0x000000F4,
0x02112002,
0x000000EC,
0x07E3CBBD,
0x00000005,
0x0E1625FE,
0x00000022,
0xF9E2ECE7,
0x000000C5,
0xEAECF4E5,
0x000000E6,
0x10131A11,
0x0000000B,
0x283D2419,
0x00000023,
0x1C05F4F0,
0x0000002E,
0xE4EF0106,
0x000000C3,
0x9DDFE7BB,
0x00000096,
0xD7F4E2D7,
0x000000E6,
0x12F8F1E2,
0x00000019,
0x1AF5D6D8,
0x00000014,
0x0827050E,
0x000000FB,
0x0BF0DCE7,
0x000000EB,
0x1005D71D,
0x000000CF,
0xF213DB0B,
0x000000DB,
0xFAF6EF06,
0x00000012,
0x1DF7DAD4,
0x0000000B,
0x1312E0EC,
0x000000F2,
0x0501D9B5,
0x000000D6,
0x010C0BC8,
0x000000DE,
0xF50D100D,
0x000000BA,
0xE7DBE7F8,
0x00000030,
0x0BE8F803,
0x0000001C,
0x02EFE8E1,
0x0000001C,
0xF6FECBD7,
0x00000002,
0x1410D401,
0x00000001,
0xFEEAF9FB,
0x00000006,
0xD3DFF3FB,
0x000000CD,
0xAECFE6FD,
0x000000C3,
0xD9D3EB2A,
0x000000F0,
0x13E8BFEA,
0x00000029,
0xCBDCF9DD,
0x000000D2,
0xE3F9E6E2,
0x000000C9,
0xEFF3F0DE,
0x00000001,
0xEE2B17F8,
0x000000F8,
0xEA1B261C,
0x000000D7,
0xDBE725FE,
0x000000EC,
0xD9FA1600,
0x000000FC,
0xCFC7F9F2,
0x000000F5,
0xEFD9E6C6,
0x00000013,
0x06FEEADE,
0x0000000A,
0xFEF003EE,
0x000000F3,
0xFEFD0900,
0x00000006,
0x09FBF300,
0x000000F2,
0xF602FB03,
0x000000FD,
0xEFF9ED01,
0x000000ED,
0x0AF1FAF6,
0x00000002,
0xFDF4ED09,
0x000000F5,
0xF305F4F7,
0x00000003,
0x0603EFFF,
0x0000000B,
0xF3F0020B,
0x000000F5,
0x08F406F4,
0x000000ED,
0xF2F2EFFE,
0x000000F6,
0x0806F9F7,
0x000000F3,
0xFF06F301,
0x000000F7,
0x04EBFDF8,
0x000000F6,
0x000603F4,
0x000000F1,
0xF80AFFF4,
0x000000F6,
0xFEEFFA03,
0x00000003,
0xFD0408FB,
0x000000FE,
0x010100FD,
0x000000F0,
0xF3EEFDF7,
0x000000F9,
0xFB0404EF,
0x000000FB,
0x03F4F402,
0x00000007,
0xF900FFF4,
0x000000F3,
0xF8FCEF01,
0x000000FB,
0xF403EFF2,
0x000000F1,
0x01FDFBFB,
0x00000005,
0x00F1F2EA,
0x000000FB,
0xF0E6F700,
0x000000F9,
0xF3EFECF6,
0x000000F3,
0x15F304CF,
0x00000025,
0x28370602,
0x0000001D,
0xC2D7FC28,
0x000000C4,
0xF7FDEDC9,
0x0000000D,
0x231906EF,
0x00000018,
0x0F0DE9DA,
0x0000000B,
0xC2CAB9C5,
0x000000DF,
0x0F0208ED,
0x00000003,
0x19180603,
0x00000008,
0xF804EADB,
0x000000F9,
0xD5ACCFD0,
0x000000ED,
0xB9CBD4D3,
0x000000C7,
0xA2A1D3D7,
0x000000E0,
0xDDE0DFCE,
0x0000000C,
0xF5010AE9,
0x00000003,
0x262DDDE0,
0x00000027,
0x08252002,
0x000000F3,
0xEFE6BEAE,
0x000000D9,
0x1713EADE,
0x00000007,
0x1D1A05F7,
0x00000003,
0xB4F4240C,
0x0000008C,
0x0EF6E1BF,
0x0000000A,
0x2C251AFB,
0x0000002E,
0x01F3FB0F,
0x00000007,
0xEBEAE0E0,
0x00000004,
0xCF0110ED,
0x000000E1,
0xE9C2D7D4,
0x000000E9,
0x0CECD8F2,
0x0000001C,
0xF1F1F1F4,
0x000000F7,
0xCBFFFA0F,
0x000000CF,
0x07D9C4EA,
0x00000019,
0x0FF7010E,
0x00000021,
0x10242622,
0x000000FB,
0xF5220D19,
0x000000AC,
0x92B5CFE5,
0x000000C9,
0x1FF70701,
0x00000014,
0x22150EEE,
0x000000FE,
0xFF1DF8D6,
0x000000AC,
0x93ABB9D4,
0x00000006,
0xF6CFD5C8,
0x00000013,
0xF2F5120A,
0x00000003,
0x23F3E6F3,
0x00000034,
0x230DF3FD,
0x0000001E,
0x00EEEDFB,
0x000000D4,
0xC9D5C2CF,
0x000000AE,
0xF2E4D9D3,
0x00000036,
0x05F6070A,
0x00000010,
0x131B2336,
0x000000F0,
0xE30515F5,
0x000000C8,
0xC7E2F4EE,
0x000000D3,
0x13FFEFF5,
0x00000004,
0xED002303,
0x000000B4,
0xD3AAB7E6,
0x000000FF,
0xD80B0E22,
0x000000E0,
0x13F1E3ED,
0x0000000A,
0xF6F90EDE,
0x000000E5,
0x08172309,
0x000000FC,
0xD3FCF3F9,
0x0000000F,
0xE114021C,
0x000000C1,
0xF1F9E202,
0x00000001,
0xF0E1EDF4,
0x0000000E,
0x0AF7DEDC,
0x00000014,
0xED28F7F4,
0x00000002,
0x132211EE,
0x000000F9,
0x030FF3EF,
0x000000E2,
0x0E1E0316,
0x000000EB,
0xD716FF04,
0x00000001,
0xD2F2FCFC,
0x0000000B,
0xE8EFE50A,
0x000000EE,
0x05DC0D03,
0x00000008,
0x071E1905,
0x000000F2,
0x111D10FE,
0x000000D4,
0xCCD4E3F4,
0x000000EE,
0xDCE2F2F4,
0x000000F1,
0x0309111A,
0x00000016,
0x0BFFEEFB,
0x000000ED,
0xCEACCECA,
0x000000F3,
0x101104F6,
0x00000000,
0x311E0C07,
0x00000004,
0x1AFAFAF7,
0x000000FE,
0xD7F7FAE0,
0x000000CD,
0x23120C06,
0x00000025,
0x2C1F00F8,
0x00000039,
0xF8F0E8E9,
0x000000FA,
0xCC10F7D0,
0x000000D8,
0xE0E5E8D8,
0x000000EB,
0x301504FE,
0x00000027,
0x37F90C09,
0x00000048,
0x05DBF4E8,
0x00000014,
0xE4F3F2F5,
0x000000DC,
0x112A240F,
0x00000007,
0x0F0B1327,
0x00000009,
0xFC0A0912,
0x00000012,
0xECE8E7DF,
0x00000030,
0xF1ABE104,
0x00000022,
0xF3D8EB13,
0x0000000C,
0xEFE5B605,
0x0000000C,
0xD8B8B9B2,
0x00000012,
0xBDC0CDD5,
0x000000D9,
0xB8CBDEFF,
0x000000E2,
0xE20B0C09,
0x000000F6,
0xFAF1EF1C,
0x000000EB,
0x1AFADDEE,
0x000000D8,
0xD6C9D6E2,
0x000000B6,
0xE3DACBEC,
0x00000090,
0x16191F25,
0x0000000F,
0xFF17151F,
0x000000F8,
0xE5F503FD,
0x000000FA,
0xC8C4C6B3,
0x000000FE,
0xA8B2071A,
0x000000DD,
0x13291421,
0x000000EF,
0xE8E0ECDE,
0x000000E1,
0xC1EF0919,
0x000000C1,
0xBFFE001E,
0x000000A1,
0xF40CFF17,
0x00000006,
0xCFF0FCF3,
0x000000D9,
0xB5DADCDF,
0x000000C8,
0xDAE6EC23,
0x000000F8,
0x00250031,
0x000000E9,
0x29151616,
0x0000000B,
0xC3FA1E17,
0x000000DF,
0x0BEDDAF0,
0x000000FE,
0x180E1ECC,
0x000000E7,
0xDBDCF303,
0x000000FF,
0xFCEE060A,
0x00000011,
0x0518EBB1,
0x000000C7,
0xB72828E9,
0x000000D3,
0xB9D41A18,
0x00000014,
0xE9B6D2D3,
0x000000F7,
0xE108EDC9,
0x000000E2,
0x0BD0E603,
0x00000008,
0x1905E1E2,
0x0000001D,
0x13271FD8,
0x000000C3,
0xC9ED1C1D,
0x000000B6,
0x10DFCBE6,
0x00000002,
0xE5E7FB0B,
0x000000EF,
0x0BF4F9CC,
0x000000F2,
0x03FDEDF6,
0x00000003,
0xD8F00C18,
0x000000F0,
0xEFEA1123,
0x000000FD,
0x071913DD,
0x00000007,
0xE1152E27,
0x000000DC,
0xFCDFFC07,
0x00000014,
0x230FFED6,
0x00000003,
0x020C1807,
0x00000007,
0xF2EA0BF9,
0x0000000C,
0xFCF0ED16,
0x000000F3,
0xDFF7F30F,
0x000000E3,
0x1F1C0AF7,
0x000000E8,
0x0C17160E,
0x000000EF,
0x0DEA0616,
0x0000000B,
0xECE3F41D,
0x000000D5,
0xF5E3EC1E,
0x0000002B,
0x1D111304,
0x0000001E,
0xE2FAF5F8,
0x000000C4,
0x10FD07F4,
0x000000E8,
0x1F0B07E9,
0x00000018,
0x111826E1,
0x000000F7,
0xDCF7F1D9,
0x000000E2,
0xFBE3B1D3,
0x00000008,
0xED261F04,
0x000000EC,
0x1010F7DB,
0x00000002,
0x070EE9C1,
0x000000F3,
0x0809F2D9,
0x00000005,
0xC1E0F0D9,
0x000000BC,
0xEF0A0D0D,
0x000000F8,
0xA7AAD3F5,
0x000000F4,
0x180CFEF8,
0x00000028,
0x07231702,
0x00000001,
0xD106FDD3,
0x000000C2,
0xF8DBDBDC,
0x000000F8,
0x1401DCDC,
0x0000000D,
0xFEEFD5D4,
0x000000EA,
0xFEF81C18,
0x00000013,
0x19FD0C19,
0x0000002A,
0xDEFBF5E9,
0x000000CF,
0xE9FD03F7,
0x000000D2,
0x1005FCDF,
0x000000CE,
0xC1BDF201,
0x0000009D,
0xD9FF122D,
0x000000CE,
0xFEE70C10,
0x00000000,
0x1CE7FF09,
0x0000001B,
0xEF121A14,
0x000000EB,
0xF82430FC,
0x000000DB,
0xFE0913E8,
0x00000015,
0xF2142511,
0x000000FB,
0xED1F1BEA,
0x000000EE,
0xFA0525F4,
0x000000D9,
0x040DFBCD,
0x000000D2,
0x0219ECDA,
0x000000B8,
0x0312F319,
0x000000EC,
0x111DDFF1,
0x0000000D,
0x1612CAFE,
0x000000EC,
0xFAF4B8F7,
0x000000FC,
0xF9CA800F,
0x00000006,
0x03ECEC06,
0x000000F8,
0xCDE5DBFF,
0x00000012,
0xF6F9FAEE,
0x000000F7,
0x0D2902DC,
0x000000E8,
0x05FEE7E3,
0x00000002,
0x0800B9CA,
0x0000000C,
0x02F3B6BC,
0x000000F4,
0x09D2A6CC,
0x00000014,
0xD1B9E2EA,
0x00000007,
0xEE093B18,
0x0000000B,
0x0904C3FE,
0x00000006,
0x30FBCA05,
0x000000FE,
0x251A1B08,
0x0000003D,
0x2BE43625,
0x0000002A,
0x11ED2519,
0x00000018,
0xFEE107CB,
0x00000030,
0xFFFEF4A9,
0x00000025,
0xFAD0B0F6,
0x000000FB,
0xE3A5CD03,
0x000000E0,
0x01E8F8E9,
0x000000F8,
0x00FBD9AC,
0x00000005,
0x0AB8DDD2,
0x00000004,
0x0CC8F62C,
0x00000008,
0xF6FD2D24,
0x00000012,
0xF1000CFB,
0x000000FC,
0xF6D6E6FB,
0x000000FD,
0xD0C2D9E5,
0x000000F3,
0xEBE6F9F3,
0x000000F6,
0x07250A19,
0x000000D6,
0x1E1D1A25,
0x0000000A,
0x090F11C0,
0x00000028,
0x08FACAFB,
0x00000002,
0xB982BE21,
0x000000D1,
0xC6D5FC06,
0x000000BF,
0xE90107E1,
0x000000EE,
0x9CD9024A,
0x000000F2,
0xCCFD3542,
0x000000FA,
0xF20911F1,
0x0000000A,
0x0C0DCADA,
0x000000FA,
0xFBE3D8EE,
0x000000F4,
0xD8BF041C,
0x000000F8,
0xED0B4315,
0x000000DE,
0x243221AF,
0x000000F1,
0x28311BE2,
0x000000F1,
0x401603EA,
0x00000019,
0xE9F60EF4,
0x000000D9,
0xE6DADBD8,
0x000000C9,
0xDCF6CBB8,
0x000000D6,
0xF003D8BE,
0x000000DE,
0xF000099C,
0x000000D5,
0xF0F3DC06,
0x000000E0,
0x010DC308,
0x00000015,
0x1313D31B,
0x0000002A,
0x1A1AFADE,
0x0000001E,
0x2B2614D3,
0x000000F5,
0xD7E7EC11,
0x000000F3,
0xFADAF20E,
0x00000000,
0x1CEA1219,
0x0000000E,
0x0EE40A21,
0x0000000E,
0x0FEB042E,
0x00000017,
0xE6F40AE0,
0x000000F2,
0xDEE2C8E7,
0x000000AD,
0xD7E0D8E9,
0x000000DC,
0xC6B9F5F8,
0x000000E3,
0xC2BFDCD3,
0x000000E9,
0xE9DD0C1D,
0x00000003,
0x0FCCEEEF,
0x0000002E,
0x100CCDD2,
0x0000000A,
0x060FE1B1,
0x00000003,
0x050911ED,
0x000000E5,
0xFAE51048,
0x000000FC,
0xD3112C33,
0x000000F4,
0xDAFE1E0F,
0x000000E2,
0xDFF6FDF4,
0x000000E6,
0xFBF1F4F9,
0x00000006,
0x0B030FFD,
0x000000FE,
0xFFF8F90B,
0x000000E0,
0xE32315E4,
0x000000C2,
0xD10F06BE,
0x000000C8,
0xC3EDEDF9,
0x000000D1,
0x181D06E9,
0x000000FC,
0x122214EA,
0x000000BC,
0xEE0E11EA,
0x00000094,
0xCF1C1402,
0x000000BD,
0xD1FB0308,
0x00000002,
0x23EBDCEE,
0x00000032,
0x230ED0E0,
0x0000001F,
0x1B17E2CC,
0x0000000A,
0x020D1AF6,
0x000000EE,
0x04F7121F,
0x000000F6,
0xFFE9F405,
0x0000001A,
0xEFE0FCFB,
0x000000FE,
0xFBEBD8F5,
0x00000001,
0xFF07F7EC,
0x00000001,
0xE1E5EAF0,
0x000000BB,
0x020BF1EC,
0x000000D5,
0x0AEAF9ED,
0x000000D2,
0xEBCFF106,
0x000000C4,
0xB7CFE8F3,
0x000000C3,
0x16F008FB,
0x00000044,
0xFA9CD91E,
0x00000016,
0x00AFC506,
0x00000016,
0xFFE7DDFD,
0x00000009,
0xF7E9D007,
0x000000F8,
0x11EEE406,
0x0000000C,
0x03EACFC3,
0x000000ED,
0x1AFAF7E0,
0x0000000B,
0xD4D503F7,
0x000000F2,
0x0702F60D,
0x000000E9,
0x06232300,
0x000000E3,
0x1E1F09E9,
0x000000E2,
0xD31511F8,
0x00000010,
0xDCD109E7,
0x00000020,
0xF2DAF2DB,
0x000000FD,
0xFBF5CCDA,
0x000000F4,
0xF7001108,
0x000000EF,
0x0D11FF10,
0x000000E2,
0xE1EFFAFA,
0x00000008,
0xCBD2F10A,
0x000000FE,
0x02CAFCF5,
0x000000FD,
0xF2E2EBE4,
0x000000E3,
0xE8D4E3D0,
0x000000E1,
0xE9E6EB11,
0x000000F5,
0x0414201B,
0x000000F0,
0x0F2D2030,
0x000000E7,
0x1E1D2003,
0x0000000D,
0xFBDE062C,
0x0000001C,
0x210AF8D7,
0x0000001C,
0x1508140F,
0x000000F8,
0xFEF2F9E3,
0x000000F2,
0xDFDAE9E5,
0x000000E8,
0xFBE80F03,
0x000000FE,
0x1F1AFFDD,
0x00000006,
0x1B2F3115,
0x000000EF,
0xDEE00518,
0x00000002,
0xCDDDCDDB,
0x000000D5,
0xCA01E0D9,
0x000000CE,
0xD201CD0B,
0x000000ED,
0xE6E9E705,
0x000000DA,
0xF604FE04,
0x000000F5,
0xEA03F5F0,
0x000000A2,
0xE204F5FD,
0x000000CC,
0xE2FAE801,
0x000000EE,
0xF7E1E1FF,
0x0000000E,
0xEDD7D7FE,
0x000000E0,
0xF7CEF002,
0x000000F8,
0x16E5FDDD,
0x00000006,
0xFDDAE7D7,
0x00000008,
0xF2BBEDF0,
0x000000E7,
0xF1EF00FE,
0x000000E8,
0xB3D6CDEB,
0x000000B3,
0xCCD8D8F6,
0x000000CC,
0xD1CDCEEB,
0x000000D7,
0xFD030807,
0x000000E6,
0x0902110F,
0x00000019,
0x01FEFD12,
0x000000E8,
0xE3DAD3EE,
0x000000F8,
0xF505050F,
0x00000002,
0xDEE0FFFC,
0x000000FE,
0xD7E1F0F8,
0x000000CC,
0xFFE00F08,
0x00000034,
0xD3F2E4DC,
0x0000001F,
0xE1FEFBF4,
0x0000001A,
0xCDF1F403,
0x000000FE,
0xECE2DDF6,
0x000000CF,
0x1C010CE6,
0x00000034,
0x12F4FF1C,
0x0000000E,
0xC6CFE0F6,
0x000000C4,
0xE0DFD4D6,
0x000000E4,
0xFDDEE4F4,
0x00000014,
0xF1CBD4D0,
0x000000FC,
0xCEABE2E3,
0x000000D1,
0xFFF50407,
0x0000000B,
0x070AED16,
0x00000011,
0xF713FB0B,
0x000000F6,
0xD6E3D1D1,
0x000000F3,
0xD4F0CBE5,
0x000000E4,
0xF4FBF9D6,
0x000000E0,
0x022F24DF,
0x000000C1,
0xF40B2E13,
0x000000EC,
0x080C130F,
0x0000001E,
0xD6F41A1B,
0x000000EB,
0xC7EFDCFA,
0x000000A1,
0xEFEADDDD,
0x000000FF,
0x03FE0CF0,
0x00000007,
0xD124100C,
0x000000C3,
0x122D1827,
0x000000E8,
0x09F4030C,
0x0000001A,
0x06FB0010,
0x00000003,
0x0D1BFE08,
0x0000001C,
0x0A311DED,
0x000000C3,
0x200CF705,
0x000000FA,
0x1EF5F1F0,
0x00000013,
0x0AEF1F04,
0x00000000,
0x14F2000D,
0x000000F1,
0xEF0105E7,
0x050B10FE,
0xF903FAEA,
0x04F7E5F8,
0xDEEB0A0E,
0x03F9FB0A,
0xCFBCF9E3,
0xCDE0FCEC,
0xE7ECE8F2,
0xCDD9E8E1,
0x1BFF1CEF,
0x05E6D8FE,
0xFA021F03,
0x04050108,
0x07050000,
0x04FDFCFE,
0x05050404,
0x0502FE01,
0x0EFEFAFE,
0xB0F41411,
0x04253620,
0xF80F000B,
0x17F9FE12,
0x16EBE70A,
0xF5FDF1EF,
0x06F51004,
0xEFE210D8,
0xEEF6F7EB,
0xF3EBFBF9,
0xCD0BEDF3,
0x0B1014F3,
0xDCE8EEF6,
0xD7E6F9F8,
0xDEDC12E0,
0xF205F7CC,
0xD61A170D,
0xEAFE08D4,
0x0924F0D4,
0xF5D8E8D5,
0xF6DBDFF1,
0x0600FA13,
0x04F3E310,
0xE3FAE9F7,
0x0D050BE6,
0xFDF1ED05,
0x0D0EF512,
0x1BECEA0B,
0xDADAFE05,
0xF40EFFD5,
0xF411FE0D,
0xFE091706,
0x0E13F6F7,
0x1E1BF5FE,
0xF6ED090D,
0xE4EE06FA,
0xECF9FCF9,
0x270613E7,
0xD5F6E6FF,
0xEFEDEAF8,
0x0503210F,
0x10FF2D03,
0xC312000B,
0xF8D5DCBC,
0x2EFEF3EA,
0xE8E90713,
0x12FC210F,
0x32121515,
0xFB21FB08,
0xC3E71B19,
0x1612C9AD,
0x04FBF5BB,
0xFAFDC3CE,
0x02D609DE,
0x161B0305,
0xFAE8FF09,
0x01D9F10E,
0xEBD8F2E8,
0xECF3140D,
0xC1F5DCE3,
0xF40BFFCC,
0x060EF1D4,
0xE200E900,
0xC9CB03E6,
0x010006DD,
0xE9FFF6D7,
0xDE040013,
0x02EF19E7,
0xD5EAE7EC,
0xFC090BEB,
0xF1F1F618,
0xF3EBE405,
0x06010C05,
0x2010F619,
0xE7EAED05,
0x0D10E8EB,
0xFC020204,
0xF7EC02E9,
0x1FF10008,
0xFEFEFF0B,
0xF109FEF0,
0xF7FBFCF7,
0xFEFEF604,
0xFBFC02FD,
0x0206F9FD,
0xF7FCFA03,
0xF5FCFF02,
0x0105FCFC,
0xFFFD04F5,
0x01FFF9FB,
0x01FF0403,
0x07FDFCF6,
0x0301F706,
0x02FA06FB,
0x0500FCFE,
0x00030303,
0xFBFE00FF,
0xFB020601,
0xFAFBFCFB,
0x06FAF9FE,
0x02F8FD02,
0x01050107,
0xFCFAF7FD,
0x01050303,
0x01FDF905,
0xFC01FAFA,
0xFBF8FE01,
0x0503F803,
0x03F704FD,
0xFB03FA00,
0xF9F9FCFE,
0xF80403FB,
0xF901FEFF,
0x00F80201,
0xF8F7FEF8,
0x03F7F6F7,
0x0105F8FE,
0xFEF8FB00,
0x04FFFEFA,
0xF900FD02,
0xF900FDF7,
0xF9F7FA03,
0xFFF9FBF8,
0x01F8FE05,
0xFFF904FD,
0xFEFDFA04,
0x03FCFF05,
0xFB04FD03,
0xFCFBFCF9,
0xFE010102,
0xF805FFFD,
0xF8F9FB04,
0xFC060501,
0xFE0003F7,
0xFE010203,
0x02F9FF01,
0x01FC00F7,
0xF9F80402,
0x00FAFAFD,
0x05F802FB,
0x040303F7,
0xF90100F9,
0x02FF03FA,
0x0305F901,
0xFCF700FA,
0x01FB0002,
0x04FEFD03,
0xFBFC01FA,
0x04FEFB00,
0x02F7FDF8,
0x02FBFEFA,
0x01FD0100,
0xFAFDFAFB,
0xF9FCFC02,
0xF7F8FC03,
0x01F7F906,
0xF8FEFE07,
0xFBFCFEFF,
0xFA04FA04,
0x04FEFC03,
0xFB0004FF,
0xFF01F502,
0x06FFFA06,
0xFEFA0002,
0xFEFB03FF,
0xFDFFFFFE,
0x050106F8,
0x0401FC01,
0x01FEF7FE,
0x05F803FC,
0xFC02FEFC,
0xFFF804FB,
0xFDFD0400,
0xFC0400FA,
0xF8FFFAF8,
0xFDF4FCF7,
0x0002FAFA,
0x0306F8FB,
0x08F8FA04,
0xFE02F8FA,
0x0307FDF9,
0xDFEC0111,
0xFC0F0E10,
0x0E07E4EB,
0xEBFCFC04,
0x0DD7E5CF,
0xEBB0CFF2,
0x07050A07,
0xFDFA2209,
0xF6F70A0A,
0xEF1DF7D4,
0xF3DEE10D,
0x1F1AF601,
0x0604E9F6,
0x07FB0301,
0xFFFCFC01,
0x0708FBF4,
0x01FAFAF9,
0x0200FE00,
0x0D0705FD,
0x19040606,
0x0EEBFD10,
0xE21E2B0C,
0x2206D8DC,
0xFDF9F40A,
0xDDD7DB18,
0x03E90C18,
0xFA1D24FF,
0xE9EA2F1A,
0xF33506FD,
0x2E24D1C2,
0x02CDD8EB,
0xE203190B,
0xFA060CD8,
0x0A05FCD3,
0x150F0322,
0x18171AE2,
0xF5CBAA08,
0xE9EBD0D2,
0xFDF6F6EE,
0x23031212,
0xEFEB0C07,
0xD907EB04,
0xEAF0030A,
0xFC2919D4,
0x2900EBEC,
0x2A181C15,
0xC9F00219,
0xCCF90FF0,
0xCC16EAF9,
0xE2CEEE17,
0x09031714,
0x11F506CB,
0xF2F804CE,
0x2819F9E9,
0x1AF4E911,
0xEBE6BBD9,
0x04FD0AF1,
0xFEF4E413,
0xE1050812,
0xEE181925,
0xF6FC05B3,
0x2AF4CDE3,
0x2100221D,
0xDCF5FD07,
0xE4F21B1F,
0xED0ADCDF,
0xECE2E802,
0x1B15F2EF,
0xEFD5FEFF,
0x1E1014FA,
0x0F051310,
0x08C6D6F8,
0xD1BDFCEF,
0xF2FCF315,
0xFE070DFF,
0x1A0B03FF,
0x1905F11A,
0xF1000109,
0xD9F7DEF5,
0xDEECE50F,
0x060E2907,
0xF8051DDD,
0x030E12DA,
0xF81B0CE2,
0x1F151329,
0x16E9F2D2,
0xD4DABA13,
0xF91FE8F7,
0x2DEEFAF0,
0x10040406,
0x10FAFC0F,
0xF8FAEA05,
0xF2D8FFF5,
0xF6E9E700,
0x071502F8,
0xF60614F7,
0xFBF203DE,
0xD6F1D4E8,
0x07E0FA00,
0x0D07ED0C,
0x05121217,
0xD6FB13F0,
0x00F9DBC6,
0xD9020219,
0x271CF7FE,
0x251FF8CF,
0xFDDBFB41,
0xF90ECAEE,
0x2216F8FD,
0x450CF40E,
0x0DF2FD0B,
0xF3F90F23,
0x06010EF2,
0x00FA01FE,
0xFB0404FC,
0xF9FFFCFD,
0xFC010004,
0xF9FDFD09,
0x1508FE02,
0x09FEE008,
0x08E3F0ED,
0x09F7F7EF,
0x1FFEE0EA,
0xF2270CFF,
0x2504FBF9,
0xF4E71732,
0xCF0713E1,
0x06F5C4E3,
0xC6FFFC00,
0xEFE1E8D2,
0x130104E8,
0x1406001B,
0xE9D303F8,
0xF5EBE2EB,
0xF0D1F0E3,
0xFF091700,
0x0F150419,
0x0F042919,
0xFB093346,
0xD012301F,
0x07000E05,
0xD8D5F8DA,
0x0BFDEEEC,
0x1F142109,
0xD7F8EE13,
0xFAF50719,
0x1F0DE7D1,
0xF90FDCD0,
0xF10F250F,
0x191D11F9,
0xFFF60109,
0xFFEBF21E,
0xCEEFE5FC,
0xDAEEFEE2,
0x01070BED,
0x190A0F01,
0xEFE2ED1E,
0xDC0A21F8,
0xFE3449EE,
0xFF1FDED4,
0xDFD7050A,
0xF61F17E4,
0x0025DEAE,
0xED182705,
0x0E22EFF6,
0x0614FCD7,
0x2010EDC9,
0x02F2C1E8,
0x08F1F30A,
0xE2B6E504,
0xFFF2131F,
0x08F71217,
0x03100F1D,
0xCFE4FC0F,
0xA3B8DFDD,
0xEEC5D8EA,
0x0B151AF5,
0x0F06D404,
0x0F0F1007,
0x081A0925,
0xF0E2E6EF,
0x10F9090C,
0xF8CAF005,
0xCFEFF713,
0xC3B405EB,
0x07FD05ED,
0x241D1522,
0x0B111831,
0x0FD9FA04,
0xEEECF8FC,
0xE4F607F9,
0xFD10FCE6,
0x0AFB1EFE,
0x060F1B04,
0xF2011421,
0xFBEB0B0C,
0x17F7F9FF,
0x260EF529,
0xE3FF0925,
0xFBF203F1,
0xF60B0F20,
0x2D2825E7,
0xF70DFA00,
0xB1100EFA,
0x1FFFE3F7,
0x0113160E,
0x0BEA022C,
0x0BF7E9E2,
0xDE01FC07,
0xF71404F7,
0xEAED0136,
0x04EDEBFA,
0xFDFB11EC,
0x07FE07FC,
0xF9070000,
0x05030704,
0x060500F8,
0x0AED02FD,
0x03FD05F9,
0xF1F9EF0A,
0xEBFD1C19,
0x120E2012,
0xE6DF1C09,
0xD832FCFB,
0x1904D5D0,
0xC9FA1928,
0x1814F6C6,
0xE2E2EAF9,
0x02F6E6CC,
0x30F9071C,
0xF40E1922,
0xDEDADF08,
0x1809DDEE,
0xFD0FF0F5,
0x241C0918,
0x04E90F14,
0x00DBDE12,
0x211A200D,
0xF211090F,
0xEB04E0F1,
0xFAF3EDDF,
0xF1D504D9,
0x331C02F8,
0x2B141126,
0xD8F3E6D6,
0xF10BF0FC,
0x0A09F7DA,
0x0A281D00,
0xF4030800,
0xF1F5FFFE,
0x0B2105E1,
0x0F1A0FEB,
0xF5DFF4F9,
0x0F0D0604,
0x27180503,
0x0FFB08FC,
0x1C03EE29,
0x00F1F922,
0xCDF204FC,
0xD9CBE2B7,
0xECE41F03,
0xFBFEE6D9,
0xFE04042D,
0x0300EDFC,
0x05151B29,
0x350100FE,
0xFDE0D8FE,
0xDF18F403,
0xDAF9DCE3,
0xFBD3E1D5,
0x04FEF606,
0x16082A00,
0xFA0EEA15,
0xE8E0EDE6,
0xDFAFF6EC,
0xF0F0F71B,
0x0C01DCE8,
0xF4D20F08,
0xF320F9FF,
0xFB06F900,
0xFA06E7E1,
0xE7F9F2E9,
0x10F9DEE1,
0xF8F4E512,
0x14FB0217,
0x13F41B16,
0xE2DDE81D,
0x120C3405,
0xF810F1F3,
0x1CFF041B,
0x0B111306,
0x06FDF414,
0x02F71F1A,
0xFB13F8EE,
0xE4FAECEE,
0x0E181019,
0x17273306,
0xF5D5050D,
0x03E6E4E8,
0xE2F60BFC,
0xFB0FFBCE,
0xFCFEE8FB,
0x0A10F505,
0x2A2808E7,
0x0A131225,
0xF1F90515,
0xF401E1EE,
0x0FF4E4E7,
0xFDEEEEFA,
0xEFE3F30E,
0x0B0BFDC8,
0xD4EFD6EF,
0xFD0408F3,
0x02FE0100,
0x0400050A,
0x03060704,
0x08060DFF,
0x04FCF903,
0xDB03FFFE,
0x3104F3F4,
0xEC171DF2,
0xF0EBDDFC,
0x1B27F00B,
0x0B0C0EF7,
0x05FC1315,
0x271F16EB,
0x07ECE111,
0x1C28250F,
0x0D0AF40C,
0xBCDBEEFE,
0xE4EF0206,
0x0101E4DE,
0xF70507FC,
0xFD112805,
0xFEFE02F5,
0x07E7EC04,
0xFDFB0D00,
0x0E2AF2E6,
0xF12E1A06,
0x2017FDEC,
0x223318F4,
0x1506DC19,
0xD0DDE51A,
0x04BD06F8,
0x1203FBF7,
0xFCEDF4FC,
0x0EFC060B,
0xD2C5CFE1,
0xF9CCEBEE,
0x0B061006,
0xF9FFFDF7,
0x130FF201,
0x1E162A12,
0x0404F91A,
0xCFE11916,
0xF4FD0801,
0xF12504E0,
0x060CBD06,
0x10F5FEFA,
0x0F182C26,
0x0CF8FCE5,
0xBAE6FAF5,
0xDCC7ECE2,
0xF7C7E1D8,
0xFBEE0006,
0x2819150E,
0x192B1B1D,
0x0AFD211E,
0xF8E60D17,
0xF5B4E2F4,
0xCB03FCDA,
0xDBEAD7DC,
0xDEBBFF01,
0x000C070E,
0xF41B12F0,
0xD3EC09EF,
0xD7F2EDE9,
0xF3D9DEF7,
0xDDD7D50D,
0xFAF80EC6,
0x200E13F6,
0xF4EDD40B,
0xF5FEFCF3,
0x051C03F7,
0xF10913FB,
0xFFFBFD09,
0xF7050BE7,
0xFDFADDEB,
0xCC1CFCF6,
0xEBFEF8F1,
0x0E19E605,
0x05FE0D02,
0x22271F11,
0xC8F30119,
0xDAD8ECEB,
0xFE2323FA,
0xE7F3F5CF,
0x241304FA,
0x1C1C110E,
0xFD0B151D,
0x19131D18,
0xD9EBFD17,
0xC6DEF401,
0xFEE0CCF0,
0xF2CCD4D8,
0xECDADFF8,
0x02190700,
0x11FA381B,
0xFF13F1F2,
0xEFF0DBF6,
0xE4D5E614,
0xECDA1AE1,
0xFD0607E9,
0xFFFF05FB,
0x00F8FEFB,
0x06090600,
0xFE000806,
0x070D03FD,
0x27FA07FD,
0x07091700,
0x0AEEF7F6,
0x0ED0F617,
0xD212F10E,
0xF8EFE1E3,
0xDDF0E7D6,
0xECF0DC03,
0xF1FBC5ED,
0xF3F10104,
0xCB2E04E6,
0x08220EDD,
0x0815F9D8,
0xDFE8F3FC,
0xFB1922E4,
0x25F6EEE7,
0xFB0B0715,
0x0C060EF0,
0xF80002EA,
0xCAC8D1D1,
0xEFEAB8E8,
0xF4C0FBF9,
0xD1B5E6FE,
0x0A1B2D13,
0xEB0528FA,
0xFA0AFAF4,
0x0A0E0B1D,
0x120A1201,
0xF3060B19,
0x03F93E0C,
0xEE1F2F04,
0xE2E8FEDC,
0x0D05E1EB,
0xE2B2EC04,
0xF21AE9E3,
0xE7FD0E01,
0xE5F9EAEA,
0x04FF1A00,
0xF0D61409,
0x10081400,
0x15E1F5F7,
0xF9FCE219,
0xFDEE0303,
0x150E070A,
0x2D0318EA,
0xEBDEFAFF,
0xE4C8F6F8,
0xF501F6F6,
0x17C0E90C,
0xFAD21C08,
0x0B1701E3,
0xF63C10F1,
0x0FD6E705,
0xEBC7F8D6,
0xC8EADAD4,
0xDD050BDA,
0x181DD7C3,
0x1A07F935,
0xD207F749,
0x02FB2701,
0xF21C0CCF,
0xF5F9CBEF,
0xDCE5E7EE,
0xFBEE13FE,
0x0A2E11FF,
0x310004E6,
0x0909E615,
0x0BFC0E08,
0x020DFAF7,
0x0AEC02FA,
0x060D070D,
0x02FF0AFA,
0xE602FBF7,
0x07F0D106,
0x01E1F5EC,
0x11F7EF04,
0xEC000319,
0xF6F80D13,
0x01DAD9FC,
0xF622DBED,
0xE80BFFF3,
0x17FCE6D9,
0xFD16121E,
0x010B26E6,
0x0E241AEC,
0x13091A10,
0x05011812,
0x19121208,
0xF5CF09DD,
0xD7DE1423,
0xD9110F28,
0xE8171BE9,
0xFFEBEA13,
0xF8EFEDDD,
0xFA050A0A,
0x09FF0606,
0xFAF804FF,
0xFCFB03FE,
0xFC080101,
0x07F60201,
0x08FEFA01,
0xDAF50304,
0xE5153216,
0x01071001,
0x0E0416FA,
0x1501F925,
0xE90C2112,
0xC1FE1357,
0xE9EE24CF,
0x080EF609,
0xF9ED0108,
0x0AFC060A,
0xE4F0F9EB,
0x0B0810E2,
0xE4DFC4E2,
0xC0E92106,
0x2A2A05D8,
0x2D28F4F1,
0xFAF5071A,
0x2912F0F3,
0xF7D7F804,
0xE4F0EDF5,
0xFEF80223,
0xF2FFFE00,
0xFBD305FC,
0x2B08EEF0,
0xE4C8DB08,
0x14151E23,
0x11041329,
0xFA01F013,
0xEDF70EF2,
0x04F909E0,
0xD3EDFE33,
0x250722F8,
0x19FBD512,
0x13FDFE0C,
0x06FA1A23,
0xEEF104F0,
0xE9C1F507,
0xDEEB2517,
0x01FD1102,
0xFEF915F5,
0x051608FE,
0xF504F6F9,
0x0E04E70D,
0xFC021E1B,
0x05051B03,
0xF2F304E8,
0xFDFF1205,
0x163303F9,
0xD20A0310,
0x1710E69A,
0xEA16E6B3,
0x1511F1F1,
0xFFE6E2F1,
0xF6F4EBF7,
0x01FFF812,
0x0F03F4E7,
0xF9FE1DF8,
0x1A2CD625,
0xF8C803EC,
0xEB0FF0F4,
0x0AFCF10B,
0x0D0E1802,
0xFEECBE04,
0xCAFB0B0F,
0x142712E0,
0x0D02E5EE,
0xFE090C0A,
0xF710E2F6,
0xFFEE0806,
0xFF1B0A13,
0x03FBF9F4,
0x0BFF0411,
0x0116142D,
0xE6E7F904,
0x1408FCE7,
0x13FFFF19,
0xF8F7EDED,
0x19170D21,
0x060E0A12,
0x16101B14,
0x22170912,
0xF6F2FB0D,
0x0DED04E4,
0xF2ECE6EA,
0xECFFECEC,
0x06EDBDE5,
0x011C0921,
0x12F31117,
0xE80CF319,
0x213C0615,
0x081001FC,
0x01001016,
0x06FE0013,
0xFBF905FB,
0xFCFF00FB,
0xFA06FF0B,
0x03FEFAFA,
0x0504FFF6,
0xF2030702,
0xFF1B14FD,
0x0C240A0A,
0x16E0E00C,
0xE2C711FA,
0xE2051014,
0x1909FDCC,
0xFA130BFC,
0x0CFBE526,
0x1C0A00F8,
0x04E71006,
0x000801E5,
0xFEE7EEEB,
0xF5F309F8,
0xE8FF020E,
0xE70115F8,
0xD7FED4BE,
0xF9FFDADB,
0xFCD7F611,
0x221B0806,
0xD61A2C1B,
0xFF200F08,
0x1F3401F1,
0xF7FAFEFE,
0x01E8ECF0,
0x10F20BE7,
0xE6F5C5F9,
0x0D21DFFD,
0xF91A0FEF,
0x0706FBFA,
0xEDEC1606,
0xF8F51505,
0x11E1EAFA,
0x0AFEF416,
0xEDF2F1FB,
0xE617F3FF,
0x28EE1202,
0x23F708E0,
0x481D030F,
0xF0E4122B,
0x0017121E,
0x091D17FC,
0x0301E007,
0x05ED0A0B,
0x1712F80B,
0x06EB0037,
0x0D171513,
0x04F1FCEE,
0xFDE9E800,
0x0E02F413,
0xEB01180C,
0xDE14030A,
0x1DF10800,
0x16FAF2ED,
0x1002FE23,
0x18F5F10F,
0xF5EE0C27,
0x05070606,
0x1B11FFF1,
0x30162007,
0x282309FF,
0x22230DEC,
0x07000AF8,
0xF5F4FD0A,
0xE1F7EA1F,
0xEA0411DF,
0xF000E0B8,
0xF7ECD3D7,
0xE7FCF1FD,
0x14251007,
0x1B0EFF15,
0x18FDFB29,
0x07FE1814,
0xF7080722,
0xF9FCF102,
0x06221007,
0xEEFA1C04,
0xE3060301,
0x01FEE503,
0xF0E4120C,
0xEF0C13F5,
0x1A10FE00,
0x0305E7E0,
0x0EF8FDFD,
0xED09E600,
0x04CCD9D2,
0x0B4517F9,
0x131EE2E1,
0xF502E610,
0x16F4E7E0,
0x12FCDCFA,
0xF40C1223,
0x07F1FA02,
0xEEFB12EB,
0x02061AF5,
0xFBF604FD,
0xFF020003,
0xFB05F8F8,
0xF906F7FC,
0xF8FDFAF8,
0xEC05FA03,
0x1F080E01,
0x19FFDAE0,
0xCB090906,
0xEFFBF5DA,
0xF2EF231B,
0xE91D0CF3,
0x1B0FD8D8,
0xDDD2C9FA,
0x0CF3DDE8,
0xF200160D,
0xFB2F520C,
0xFB0000F4,
0x10FEE6F9,
0x130A0FF6,
0xFB01070D,
0xFC06E4F5,
0xF210F7ED,
0xD10D0FD5,
0xFC09DBD5,
0x0BE912FB,
0xE3E50CF9,
0xEF00E9F9,
0x0DF0FB15,
0xE00C0700,
0xEE0008E5,
0x0406F4D3,
0x00F5D2DF,
0x09FAE911,
0x2A0E160D,
0x05070CF4,
0x060905F1,
0x09F8E2D7,
0xE2C6EF04,
0xDFEEE1F7,
0xD80022E5,
0xD50BE7B6,
0x0600F70F,
0x2A060AD8,
0x2A1100FF,
0xEAE8162E,
0xFA211624,
0xE3FFFDE2,
0xFC100505,
0xEDF5DDCA,
0xFC11EDEA,
0x10121503,
0xFB31EA05,
0x0AD0D90D,
0x02E9E6FC,
0x0ADF0BFD,
0xE2E2EF02,
0xF9CFF600,
0x14FCFDE1,
0x0512FC12,
0xF0210C21,
0x0F2DF413,
0xCCF8FBE2,
0xEC15F9FD,
0x0909F9E4,
0x2707F6E8,
0xE70A0221,
0xE5FFF310,
0x1D10FB18,
0x05FFFF18,
0x07EE03E5,
0xFB0ED4DA,
0xF2E8E8EF,
0xDB001ED4,
0xECD0BEE0,
0x13EAF7F6,
0xF4F6F2F3,
0xFEF3DEF2,
0xEEF5CFF4,
0xFFF7ECE3,
0xF8F8FA12,
0xF5FB0203,
0x02F8DF04,
0xF9F10C16,
0xE5F4F5F7,
0xD30F0AFA,
0xDE12FED8,
0x13100309,
0x18180EF8,
0x1A3204FB,
0x1E3D2A1B,
0x0BE4E608,
0x09F7C5EF,
0x1E15F525,
0xF8FBEE09,
0xC40FE813,
0x25011BF2,
0xFA0FF400,
0x020A0409,
0x090302F9,
0x0002FA03,
0x06FB04FF,
0xFAF80102,
0xFF070003,
0xFAFF0503,
0xFC01FC02,
0xCD05120A,
0xEDEE0809,
0x0FF00300,
0xFAFC2615,
0xFF45FBF8,
0x1DFCF210,
0xE7F61E38,
0xF31716DC,
0x272CD8E0,
0x2CF9F0EA,
0x06EACEF7,
0x05F3E1D4,
0x1F1A1625,
0xB9F0E9FE,
0xDB0403CC,
0xF5FEBEB7,
0x0A0DE5C7,
0x25F0EE1F,
0x1D094127,
0x0219402D,
0x04FA3636,
0xFBF21C1A,
0xE5F0F5ED,
0x01E80E0E,
0x1D251A05,
0xD1E3DD03,
0xF6271805,
0xFE28FEDD,
0x150EF6FA,
0x02090005,
0x0EE30A07,
0xE2001CFF,
0xF003270F,
0xDE0DE7EA,
0xF212FED0,
0x2B15F7DD,
0x2915FBFC,
0x1606F920,
0xF1E326FB,
0xEB0E1CF2,
0xF80514ED,
0xE1160DF5,
0x1304DDEC,
0x0133FCD3,
0xFB011D22,
0xFF1BE303,
0xE7D4E9D3,
0xDFF4F8FA,
0xE3F7DEDC,
0x07F5D801,
0x22F9F511,
0x07EFFBF4,
0xFF0FF112,
0x0C04070F,
0x0BF2F2F7,
0xE7F0140D,
0x0E160E01,
0x27F612EB,
0x22090116,
0x2EFE1404,
0xFA130AFD,
0xE009070D,
0x1F070CDF,
0xD5FBD510,
0xD5FBFDD0,
0xF0CBE0B0,
0x24FDE3D5,
0x09F6F522,
0x1D1D400F,
0x1C0809F4,
0x13F9EF11,
0x0FFEEAEF,
0x0FF0FE14,
0xEF020D35,
0x04FD18E7,
0x050FFFF5,
0x020F1D24,
0x0D1306E9,
0xF111120A,
0xF1EC09F6,
0xDEF1EBDD,
0x0EFA00FE,
0x0CF3E921,
0xEBFC0705,
0xED11FDFB,
0x150C06F6,
0x09FC130F,
0x03F90011,
0x12FCEB01,
0xEE0F0D01,
0xF2250E10,
0x2922DFF7,
0x1DD3E90E,
0x01051608,
0xFFFFFC01,
0xFF07FDFA,
0xFCFE0106,
0x02F9FF08,
0xF8080504,
0x05030006,
0x2A180704,
0x1E441AFD,
0x11FFFC27,
0xF3FA2425,
0xF71912F4,
0x1AF206FD,
0x160E13D9,
0xF90A0519,
0xF8F60E0E,
0x020A0309,
0xE6F0010A,
0x00D1EE00,
0xF1F6FCF5,
0xF2E80B09,
0xFC130FF5,
0x14F303E9,
0xEBE4D8E2,
0xDAF9F92A,
0x0A1CF9DF,
0x1CFCF811,
0x070C130F,
0x181804E5,
0x08FCCD0E,
0xF4D1FCF4,
0x05C5F7F8,
0xF1000BFB,
0xEEE60101,
0x06FB13EF,
0x01F80606,
0x01E8EAE1,
0x1A04D8FE,
0x0C0E06E4,
0x00ECDF1C,
0xF5F73815,
0xF0DD0E0A,
0x02DDF700,
0x01FDFFF2,
0x2D170CCE,
0xFE06E301,
0x0FF5FB19,
0x070C49FF,
0x201BEDEC,
0xEDE7FF08,
0xF806F200,
0x13EAEA0F,
0xE412E00D,
0x1E120915,
0x1B300E00,
0x0CF81D1D,
0xF000FBFE,
0xE2F3DFE9,
0xF2E7EEE2,
0xFCE6E4EC,
0xFFFD0CF7,
0x14190E2C,
0x09132822,
0xE20113F0,
0x05FE11EA,
0xFA0EF8F3,
0xF5ECEDE5,
0x250BDAF4,
0x16FC051A,
0xEFF6010C,
0xF8E91412,
0xFC08F605,
0xE0F003D2,
0xDFE0ECF2,
0xF407FAD7,
0x17F7E2EB,
0x112B01F8,
0xD1E2F605,
0x0AF50A0A,
0xEEF5FC1E,
0x102F01F7,
0xF90ADF00,
0x09E405F3,
0x0405F804,
0xEEDEE9F1,
0xF4DFF4F8,
0x040505FC,
0x0923F11D,
0x34DAC9EB,
0x12EFE03C,
0xF7E41729,
0xBC03EFEE,
0xF0F2FADB,
0xF606DDE3,
0xF50C1C06,
0x0A14332E,
0xED15FCF8,
0x05E91012,
0xFE1005F2,
0x122A01FF,
0xF901FEF8,
0x03050405,
0x0600FDFD,
0x00F60509,
0x06000607,
0xFC08F9FD,
0xFC0206F9,
0x0416F1F6,
0x13F6F9EF,
0x0B06EF0A,
0xFAB7180B,
0xD70802F6,
0x0CFAE4EA,
0x0203EDEB,
0xF906FD08,
0x11F2E5F1,
0xE3C6FB0C,
0xEB01E9FA,
0x02F4D60C,
0xE2E5EAFB,
0xD0F3FBF6,
0x0B1D12F8,
0xE60CF9DF,
0xECF1FBFD,
0x1EF5F8E3,
0x1D1EFB11,
0xF2041202,
0x0309F50A,
0x0AD41B10,
0xE2F61CEA,
0xFAFDF3E8,
0x021CF2F8,
0xEFF2E8F4,
0xE204F813,
0x0CFB02E0,
0xEC02EAE2,
0x041DDCF5,
0x07FEE0FE,
0xF1DD01E8,
0xFF06F4F1,
0xEFE9F3F7,
0xE3E002F8,
0x0F03F0E0,
0x13FEDEE4,
0x100C03F6,
0x0204040E,
0x01E8DBEC,
0xE9D60F08,
0xF8311706,
0x2809F7F0,
0xF509E8ED,
0x030AF8F0,
0x1CDCF1FA,
0x1AF202DF,
0x06EFD70E,
0xF61FEBFA,
0xF3F300FA,
0xFB190EFC,
0xEA2906E0,
0x110BEDEE,
0x09EBF4FC,
0xF7FEFEE8,
0xF8F61507,
0xFA1D1A35,
0x07071E06,
0xF80BE2F9,
0x12FAF40C,
0x28010401,
0xF51EFAE5,
0xD3EF0AED,
0xE9EC1406,
0xFF121FF7,
0xCF0AEDE7,
0xFC10EDEB,
0x0CE2CEF5,
0xE0130E00,
0xFBF3F8DF,
0x061D0DF7,
0xFC18271E,
0x0D110FF5,
0xF4F4FB0E,
0xFCFB05E4,
0x0B01E4D5,
0x110CEEFB,
0x05E00200,
0xE6D60EF3,
0xF90C29E8,
0xEBEEEEF2,
0x06060CF1,
0xF9F0FA05,
0xD8D1F3EB,
0x0A19FBE4,
0x190502FF,
0x0F081C21,
0x15F40D18,
0x13E5C5FC,
0xF5DE0FE7,
0x0DFED416,
0x01EE13FA,
0xF319F119,
0xFF051C1C,
0xFE0700FE,
0x02FCFFFD,
0xFDFD03F9,
0x00030A02,
0xF70803FC,
0x00FC05F8,
0x293A0E13,
0xF91000FF,
0x0A04FE09,
0xFFEC0E07,
0x0317F7E9,
0x0F10050D,
0xEFF50A27,
0xF4EDF8EF,
0xE9EC01FE,
0x010DF8FF,
0xE50A26F4,
0xFCEDEE03,
0xF1F11614,
0xE9EC0803,
0x09E2F6E6,
0xFA0D1F20,
0x171E0AEE,
0xE2EBE600,
0x0307F7E8,
0x01FF1115,
0x08C7EE0F,
0xF1F3ED05,
0x0FEC0315,
0xE6ED0D1A,
0x20F810FE,
0x011AEA24,
0x320C030E,
0x20FDE4F0,
0xFBE31E38,
0xF5E800F8,
0x00030FFD,
0x03F8F611,
0x16F4D7DD,
0x0510D1FA,
0x0DF9FD09,
0xFC081B16,
0xDDEBDBE1,
0xDDD4E0F2,
0x0DF605E6,
0xF4EDF2F2,
0xE2041511,
0xEF030A09,
0xF0FCECF6,
0xDAE20AF4,
0xF6F9FE02,
0xFE2201F8,
0xD905F7DA,
0xF1E61001,
0x262C1502,
0x081101FB,
0xF8E3070C,
0x1315291C,
0xF1FB0B06,
0xD4E00710,
0x17FE13D8,
0xFD16FA1B,
0x2AF7DBF6,
0xF8F5E7F5,
0xEEE50302,
0xDEFCF801,
0xED0018E8,
0x0A1530F2,
0xED0FF104,
0xF5EBFCF7,
0x22E5F1F0,
0x131B1A32,
0x21230DE6,
0xE2F1F61A,
0x14FAF3D4,
0xD2FF0C23,
0xF5F903D9,
0xEF0CF836,
0x09F7FF03,
0x032417FE,
0xEA09030E,
0x0700DFEC,
0x1F0AEF08,
0xEF07F114,
0x01FAF20E,
0x0EFE00FF,
0x2AF7190F,
0x182C161B,
0xF6EFEB1E,
0xE2F4EFE4,
0x050B1DF8,
0x191CE8DB,
0x0809FB11,
0x17F62402,
0xF8FB201C,
0xFDF0EFFD,
0x17141BFF,
0x1502E3F5,
0x22F1F900,
0xFF00FB17,
0x00FDF9FA,
0x07FF0406,
0xFD020405,
0x05FEFFFF,
0x04FB0406,
0x0904FDFA,
0x02FE1111,
0x2D3302F4,
0x1CFEF310,
0xEED1EB00,
0xFE151020,
0x171312FE,
0xFF261504,
0x030DF604,
0xFA181A18,
0x0A021B22,
0x0AF6F504,
0xE6E6E80B,
0x090F1DE2,
0x0BFBE0F8,
0xFC0F0911,
0x0DE9E4DF,
0x00F4ECEF,
0xE0D9EB10,
0x0DEFE2E7,
0x04F91228,
0xEE1311F9,
0x292FFC09,
0xF8FE040E,
0x0C03E90B,
0x07F5EC0C,
0xF3DFEEDE,
0xFB04E6F1,
0xFAF3FF15,
0x1D06E4EF,
0x0FE2E7EC,
0xF6D2E914,
0x10130D01,
0x4007F70C,
0xE5EDFF1C,
0x11122112,
0xF4F81814,
0xDCE9EAE0,
0xD71627E4,
0xE104E5F5,
0x25E71BF1,
0x051CDF05,
0x10F2FA23,
0xFCDA02EA,
0x181BFB08,
0xEEFBF121,
0x0A120B06,
0xFF09FFFB,
0x0BEDD0E8,
0x130D0401,
0xF7FEE9FC,
0xD8CFCEE9,
0xD8E1F6FB,
0x32F4F6FE,
0xEA14041F,
0x21041A38,
0x0B0F2F0D,
0xE0DEE7FB,
0xE0E6F2F8,
0x1C0DF107,
0x2FF9FD03,
0x09F2F511,
0x130DEC1F,
0x14200E2E,
0xE7F5EB09,
0xD5331C03,
0xFCEFE5E0,
0xF4F8F3D8,
0xE6EFFBF5,
0x4031CECD,
0x20060B26,
0x1A0E0316,
0x07F3E7DE,
0xD6E7FCF5,
0x0102F80F,
0x18FBFB0C,
0x0FD9010B,
0xF5FA0700,
0x0A04F905,
0xE9E6EFFA,
0x01031001,
0x1F211C07,
0xFFFCFAFA,
0x152301FF,
0x06F7FA08,
0xE7FDE7F0,
0x08FBDEEC,
0x01F8E7E2,
0xE7FCFF0A,
0xEDEFF0EA,
0xF3F1F6F4,
0xF61328FF,
0x0E0B1C15,
0x314106EE,
0xF8FDED0F,
0x02060404,
0xFB05FEFD,
0x020102FB,
0xFE04FD06,
0xF906FC06,
0x17FBFEFC,
0xF2061108,
0x02FB09FB,
0x14291D12,
0xF2FAFCFF,
0xEB12FDED,
0xF0F8F3FB,
0xE5E509FE,
0xFB221DDD,
0x0916F4FA,
0x000F08E3,
0x12FCF4FB,
0x00E6E7FE,
0x061012F2,
0xF11510FC,
0x11F100ED,
0x0A18EDFD,
0x0AF4F4FD,
0xE7E0E401,
0xFB1705E2,
0x08FB0FF2,
0xF6ED0108,
0xEDFE0E11,
0x051617E9,
0xF4FFF70A,
0xF60128FA,
0xF7EEF623,
0xE6F5100C,
0x00F4EFFE,
0x06E601F8,
0xE6F9ECFC,
0xE8E00515,
0x03071617,
0x061A18EC,
0xEFEDE9F3,
0xFFF0FDF8,
0x01F6EFFC,
0x00DCE1E5,
0xEC130BE8,
0xF8FE1308,
0xF70EF6EB,
0xDCF3E511,
0x0FD200DB,
0x0612D8FF,
0xDFE91B13,
0x1EFFF9FA,
0x01FCF119,
0xE9F4001C,
0x09E4F710,
0x0DFB0407,
0xE8DBE222,
0xFADEEDDF,
0xE6FFEEDC,
0x1B07E4F4,
0x1103FB28,
0x21FC0A0F,
0xF4232237,
0xF0FDF9F1,
0xE502F0F6,
0xF2CFEF10,
0xE2FA12F8,
0xEF05060D,
0x0C031BFE,
0x08130D1F,
0xFA1901FF,
0x1FF815E7,
0xF91A1413,
0xF6FEF6FE,
0x01F4E90B,
0x0610E7E0,
0xFA0F010A,
0x0BF3FBE0,
0x01001908,
0x0A02FD0E,
0x09DBF4F7,
0xEFD8E0FC,
0xFDEBEAE3,
0x0F0B0705,
0x03000701,
0xCFF4FF11,
0xF6E3FCE5,
0x050DFFFB,
0x1107FE08,
0x1118071B,
0x1D1A1715,
0x0FF1131F,
0xF5F5F0E8,
0xDCBAACF3,
0x091104ED,
0xE7131607,
0x04F8F611,
0x071220E4,
0x0AEEFF19,
0x1A1405FE,
0x00FBE00B,
0x0301F9FF,
0x0502FFFA,
0xF8FB03FC,
0x05FA0AFB,
0x03FDFC04,
0xF9FDFB00,
0xF50219FD,
0x1328201D,
0x0E2C1607,
0xFEDFF2E0,
0xEAFE0E36,
0xDAE5DFED,
0x04162334,
0xFA0E06F0,
0x151FFAFC,
0x0EF3F91A,
0x290AD8D5,
0xE7CACEE2,
0x0A1622F4,
0xF71200FD,
0xFA050FF8,
0x0702D7F2,
0x0B0BFCFE,
0xE8B2B301,
0x1BFCF3E8,
0xF5FC0116,
0x08FD09FE,
0xF92F1007,
0xEF130902,
0x16F3F60E,
0xEF2F01EF,
0x02E0F2F3,
0xFCFBFCEF,
0xCC121C0C,
0xFA08DCF0,
0xE30FFC03,
0xF2D5010F,
0xF6071EFC,
0x24120408,
0x01FCFA06,
0x1629F6FE,
0x17E7FE1D,
0xEAFED2C7,
0x131A20DE,
0xF4E80A0D,
0x060B1907,
0xF31EF9F4,
0xF4E1BAFA,
0x2DD1C1C6,
0x2529F022,
0x0206F231,
0x02030516,
0xE7D8F4EB,
0xD5E4E201,
0x1524E4CA,
0xFAEDEAFE,
0x02DCDCF9,
0xE3E5FEF4,
0x2309EF04,
0xFF0DF705,
0x2FF5F909,
0x08072011,
0x06050BF6,
0x120514D4,
0x1D2FFE08,
0x150302F2,
0x1CFA000E,
0x0B1211FF,
0x140E0D15,
0x0219E109,
0xE8061DF4,
0x01FDEAE8,
0x06E8EBDA,
0xD9CBC403,
0x0926D0C8,
0x31E71006,
0x1B180F32,
0x1DFCFD0A,
0x040B0C07,
0xB9D5EB05,
0xFCDAEAE4,
0x16091313,
0x02F9180F,
0xFEFAF80F,
0xC7FB00EB,
0xFBE4DFE9,
0xF7FEDDF9,
0x121E131A,
0xC7F01A13,
0xC2B6E3CA,
0xB4DC17FF,
0x072B08E3,
0x1F0CFFD3,
0x00E0FA26,
0xF219E6F8,
0x1005F2D9,
0x3FE9C912,
0x11F7F8FA,
0xD9D80323,
0xFFFA11F2,
0xFDF9FC07,
0xFB0004FE,
0x05000500,
0xFAFDFC02,
0xF801FC00,
0x0D05FCFD,
0xF8FDF501,
0x0AE4F5DE,
0xFAE8D5E4,
0xF4ADD601,
0xDD123119,
0x0409FD0B,
0x000F02F6,
0xE4FEDAE2,
0xF7C8BDEC,
0xCEDD090A,
0x060CF7EA,
0x1303FEF0,
0x1119162B,
0xF5D62716,
0xF70701EF,
0xD9CABED0,
0xFF0F1806,
0xF70607EE,
0xF0EFEAE4,
0xEEF41C16,
0xDB1610ED,
0x131302E3,
0xEBE218C3,
0xF113C7EF,
0xFA01161E,
0xFEF2E3E1,
0xE1F3F6E8,
0x040D06AC,
0xF310D9B3,
0xF10816F5,
0x181B10FA,
0x1E0D1518,
0x09D5E919,
0xC7DBE10A,
0xF4DA03FF,
0xFC1007F1,
0x0C0A0306,
0x0DF5F6F9,
0xE5F72CE6,
0x032B3CF0,
0x101BF0E9,
0x02F3F913,
0xE30603DE,
0x0602D3C1,
0xFF1A2708,
0x060AFB05,
0xED0DDEE6,
0x200DEAD8,
0xFFFEC9F3,
0x0CD4DF0B,
0xCDD30D04,
0xFCD51114,
0x16EB0FFD,
0x1E000E29,
0xEC021733,
0xFDDDF9F7,
0xE9DDF0F2,
0x020D0C08,
0x1814F4EE,
0x1309FCEF,
0x1412F121,
0x0BFDDDF2,
0x170B1818,
0xECD60A25,
0xE40F11FD,
0xD6B5E1DA,
0x020E0701,
0x110B1ED3,
0x1910E70B,
0x16F2FE0E,
0xF7F7F8FD,
0xDFDBE6D9,
0x0C08EEDF,
0x0BF40CF5,
0x1BE70C08,
0xF2061015,
0xF4E6091D,
0x13FFFCF1,
0xD4C8D8FE,
0xDFEA0713,
0x1408F8F5,
0x08F9FBEC,
0x06FAEF13,
0xFAE8F601,
0x11372D09,
0x04220B05,
0x0BEDF9F8,
0x20ECE210,
0xF0F21124,
0xF61B1B09,
0x1FF6FC00,
0xF81812FD,
0x0D03FAFC,
0x0008F604,
0xFF05FA02,
0xFEFA0604,
0xFF040006,
0xFA06FB01,
0xFA05F907,
0xEFFC03F8,
0x03F105ED,
0x162503FF,
0xFEFB01F1,
0x0BF51C0C,
0x031D1104,
0xE90D0E11,
0x000E0904,
0x10020EFD,
0x190F110F,
0xF5182828,
0x02E7F4EE,
0x03EEEDE2,
0xF4E7E52B,
0xE30C01E6,
0xE2192816,
0xF9F0E7EE,
0x10FCF7F4,
0xF6F0EEF7,
0xFE01FC03,
0xFBEF00EF,
0x03FD0204,
0x10FC140B,
0x130E031D,
0xE7F0E5FB,
0x0BF3E3E0,
0xF2F7E1F9,
0xEDF5F2F6,
0x1BFFF0F6,
0x0004F3F7,
0x0D0C00F7,
0x01ECF4FE,
0xEDF0F800,
0xF711F9F1,
0xEE05072C,
0xF8FFF8F8,
0x0A0D07F3,
0x09FCFDFC,
0xEFFE0002,
0xF1F0EDFA,
0xE9F1F7F5,
0x11F9F4F7,
0x02F5F8EB,
0x04F9ED03,
0x02F2EFFD,
0xF7ECF2FA,
0xF2EFECF8,
0xF6F8EE09,
0xF00908F6,
0xFBF5001B,
0xE5F50D05,
0x120C0EEF,
0xFB2309F8,
0xF4090BEC,
0x1C0EF713,
0x02F20704,
0xEFF80506,
0x0D032F22,
0x05FEFCF8,
0xF5DF0AFF,
0x17ECF926,
0xFEF302F8,
0xF1F6F905,
0xF4FE00EF,
0xE7F4FFF8,
0xE90F01F2,
0xF0FCF7F5,
0xFE00FDF0,
0xFFEBF40C,
0x292B0406,
0x0905030F,
0x14110800,
0x0E0C0507,
0x0C050C0F,
0x03090B03,
0xF2FBFA0D,
0xF9000905,
0x061415F7,
0xFAF8FBEA,
0x0AF3F01B,
0x00FB2C17,
0x00150305,
0xF6F6FAFB,
0xECF6FA04,
0xF2071A06,
0xF92AFADC,
0x04EED6DE,
0x1202F2EA,
0xF6090317,
0xFEEEF9F6,
0xFCF7FB06,
0x1FEEE9F4,
0xE0EAF801,
0xD20404EE,
0xFFFEE005,
0x05FBFE01,
0x060406FA,
0x05060304,
0x04FA0801,
0x00FC04FB,
0x01FFFBF9,
0xFADDC9E0,
0x04FD040D,
0xF8F5FE1A,
0xDCDD2E13,
0xEF130AEE,
0xF9FFE6FE,
0xF8FF0D0E,
0xECF00510,
0xDBFB17FB,
0xF00318DD,
0xF9E2E8E5,
0xF6FEF800,
0xE4F906F9,
0xF014E4E3,
0x3200F9E9,
0xFAFEED06,
0x160001F9,
0xFAFCF803,
0x09F810E7,
0xF2120F0A,
0x03DDF5FF,
0x0FD5E4F6,
0xE8E42419,
0xFF16F604,
0x0CF70406,
0xFAF50511,
0x0ADBEE24,
0x010DF603,
0x11FBFC0C,
0xECFAE8F3,
0xE6E3DC03,
0xFAE8DBE7,
0xDBE5FFFF,
0xEBF704F4,
0xE61503EE,
0x0D24FFF0,
0xEDE2DBD6,
0x01EF07EF,
0x0617EAFE,
0x09F7F0F0,
0x05EBFB01,
0xF90D0AF3,
0x0701F71C,
0x010EF4DD,
0x03F3FAED,
0xF20FF9FA,
0xFF0FEE12,
0xFAE4EC0C,
0xE80E2306,
0xF8100B07,
0xFAF6EBF1,
0x0501EBFD,
0xF6EA01F2,
0xF10FD2EA,
0xF6ECECDA,
0xF9E8D6EF,
0xFD091108,
0x02F809F2,
0xFFF7EC14,
0xF8DAEF05,
0xE2DDE80C,
0xE5C7FC00,
0xDBFD07EB,
0xFF2DF3D9,
0x21ECDEE7,
0xF105FF23,
0x1F28F5E3,
0xEAEDFC16,
0xFFFBF5FD,
0xF3FBE8E5,
0x1024F208,
0x0E1F1FFA,
0x11F6EFFE,
0xEFDE1E15,
0x03FAFB0D,
0x00F7E705,
0x06FBF3F9,
0xDBF1F800,
0xE100F8F4,
0x0310EBE8,
0x282003DB,
0xEDFAF604,
0x1801FD0B,
0x04F5E6F2,
0xE9EB2112,
0x1AF3E6D9,
0xFD04D8F9,
0xF408002A,
0x0EF31D0B,
0xF1FC1EEB,
0x1010FE02,
0xF1FF0405,
0xF6F9FBF8,
0x03F801ED,
0x02F90306,
0x01FAFC00,
0x000303F9,
0xFC04FBF9,
0x02FDFA06,
0x00FFFCFA,
0xFFE4FDF9,
0x0F122009,
0x3303F9E6,
0xF3E000F4,
0xF91B0107,
0x2512FCDF,
0xE9003019,
0x0828F0D6,
0xEF06FCF6,
0xF7150E01,
0x0DFC00DD,
0xF2F303D5,
0xE8F40A00,
0xF614F6EA,
0xF40AEEFA,
0x1D07EEF9,
0x16F4EAF2,
0xE0F60014,
0x173318E3,
0x0FEAEF23,
0xF1030611,
0x0102F607,
0xE9FA0611,
0xE6EC050C,
0x090B0000,
0xDAFAF8FD,
0xD40807F8,
0xE71BEAF8,
0xF317FC02,
0xEF000800,
0xEBDBF1EA,
0xF812F6FA,
0x0C1CF4E6,
0xEA04F60E,
0xE80000F4,
0x14050503,
0xEFE10808,
0xEED7EC03,
0x03FB0210,
0xEDF426EC,
0xDAF6E7FC,
0xF0DBF9FB,
0xF40008EC,
0xFA102B05,
0x02ED01FB,
0xEF010011,
0xEF1E041E,
0x0BF5FBDE,
0xF9E10A07,
0xF814130A,
0x1623F1F0,
0x1D05F3F7,
0x07E0FD0B,
0x090FF0F9,
0x04EBFDF1,
0xF5FE0604,
0x01EEFE03,
0xCD05FC14,
0xE8FB0FF9,
0x0A04FCDE,
0xFAD6F6FE,
0xF4FF08D8,
0x1112FD02,
0xFDFAF9F2,
0xF102E9EE,
0x1E02EF07,
0x0D010DFA,
0xF3010C1F,
0x12071CEC,
0x0E200711,
0x0D030611,
0xFFF2EE19,
0xF6FD0706,
0xF9FD2204,
0x0610F902,
0xF004F8EE,
0xF42C1021,
0x3109F9C9,
0xFAF1EF18,
0xEEEFEDFF,
0xF8F51CE5,
0x2201EB00,
0x12210D1F,
0x0D020B17,
0xE5F0F2D6,
0xF5FEFEEB,
0xF1E71AEA,
0xFFE6F7F3,
0xD6E21118,
0xE10E2419,
0x19231DF2,
0x370C1416,
0xF510214B,
0x07021A1D,
0x06F8FFFA,
0x02FAFDFC,
0x07FF00FF,
0x02080301,
0xFE020605,
0xEFFDFC06,
0x0C120EF3,
0x13332928,
0xEFE608FC,
0xFEC9D7F5,
0xE9D9F0FF,
0xE0DE04F9,
0x01292E10,
0xF2F602EF,
0xFAFD05FD,
0xFBFC090E,
0xE1080AE4,
0x08E6E2EB,
0xE8E4EFF8,
0x100D1709,
0xF6250C01,
0xF8E3F0EF,
0xF1E9D2E1,
0xF0DED5F9,
0x23FA2FE8,
0x040BF1F5,
0x010F1E16,
0xE0110420,
0x03E8E60A,
0xDDDBF10B,
0xF9F62905,
0xF2E3EEF1,
0x09FDED1C,
0xFC0AF61E,
0x0B10FD0D,
0xF5F80A1D,
0x0AF80A27,
0x02110EEC,
0x16120CEF,
0x00F3EB0E,
0xCDDCF90B,
0xEDCBE7E3,
0xF3E9D5DC,
0xFEFEEAF3,
0xCFDE2101,
0xEFE3EBDE,
0xEDE8D1C6,
0xD2E1DDE8,
0xF6EC01E3,
0x140ADFF7,
0x2803DFF7,
0x10EFFC1B,
0xECF51BF7,
0xDF0DF7F7,
0x0909D9D3,
0xE5F5C0E7,
0xE0111CDE,
0xF4410DED,
0x2611FBEC,
0x110CDF24,
0x1CD5FE1A,
0xB5DA3EFC,
0x1DFD121A,
0x1BFB0A0C,
0x05190800,
0x1D151516,
0x18FA050D,
0x0DE80F07,
0xF1F1F900,
0x0E17060C,
0xEB0507FA,
0xEDFC1DF0,
0xDF15DACA,
0xFCCCD6E9,
0xF100FDEF,
0x2412FD01,
0x030D0410,
0x0806F70C,
0xE8DFF2F3,
0xE7F908FB,
0xE9DDEEE8,
0x1EEBEBD5,
0xE1000012,
0xFBED04F7,
0xE40016F7,
0xE3FDE8EE,
0xFCE9ECFA,
0xFFF4FE00,
0xF500FC03,
0x0304FE05,
0x0408F700,
0x0BF90401,
0x05FC0501,
0xFD06FAFB,
0xFF0300F6,
0xFA03F702,
0xFDFCF8FB,
0xFCF905FC,
0xFA030004,
0x03FDFAF6,
0x010106FA,
0xFB00FD05,
0x0406FBFC,
0x0008F8F9,
0x06FB06FC,
0x0401F800,
0xF802FEFF,
0xFC0400FE,
0xFEF8F8F8,
0xF90400FD,
0xF804FE03,
0x00F8FDFB,
0x04050305,
0xF8F8F9FB,
0xF9F80302,
0x0306FDF8,
0x04000301,
0xFDF703FC,
0xF9FDF8FB,
0xF701FE04,
0xFE06F7FC,
0xF80003FE,
0x0604F9FA,
0x02F5FA03,
0x00FFFAF8,
0xF90305FB,
0x02FFF604,
0x01FE05F9,
0x01FF0208,
0xF50303FB,
0xFFF9F901,
0xF8F70203,
0x050306F8,
0x0306FDFF,
0x03FEFDFF,
0x03FBFCFF,
0xF7FFFA03,
0xFFFCFBF8,
0xFF040502,
0xFEF808FE,
0xFFFD03F5,
0x04FBFE00,
0x02F4FAFD,
0x00F80100,
0xFFF706F6,
0xF6F7FCF5,
0x04F801FA,
0xFBFA04F9,
0xFFFE0600,
0x01FFF8F9,
0xFCF4FC00,
0x00FAFD01,
0xFD040209,
0x0204FC00,
0xF804FFF8,
0x0201F8FD,
0xF702FBF7,
0xFEF601F4,
0x01FFFAFB,
0xFA03F8F9,
0x0301F804,
0xF600F7F7,
0x020001F7,
0x00FCF601,
0x02F7F9F7,
0x03F9FD02,
0x04FA0100,
0x0302F9FE,
0xF9FE0203,
0xF8FEFAFF,
0x02FFFCFF,
0xFDFFF8F9,
0xFCF8F8FE,
0xFEFB01FA,
0xF800FE01,
0xFFFD02FB,
0x02F9FB04,
0xFC0202FA,
0x04FAFEFB,
0xFC0401FF,
0xFB02F700,
0xFAF7F9F6,
0x00FA0006,
0x0002FAFB,
0x06FA00FE,
0xFBF8FDF9,
0x00FE0401,
0xF1FADCE9,
0xE7B6ABF8,
0x0E030F1A,
0x10201E02,
0x13000824,
0xF0E91417,
0xFC12E6FB,
0x3422E8C3,
0x3107D8ED,
0x15F5CC20,
0x3A11D4DC,
0xD5D5C207,
0x0306F216,
0xF9F9FE01,
0x070204FE,
0xFB010409,
0xFB000800,
0xFCFDF902,
0xD7090500,
0x07F7EDDB,
0xFAFCE0D7,
0xF5E5D6D4,
0x1510D602,
0x08081121,
0x13EDF81F,
0x311FE7A6,
0x1CFEC438,
0x280D2127,
0x0CE2F6E7,
0xDEE6EFFA,
0xE503EBE9,
0x23F8D0E7,
0x0D1B0714,
0x060CF700,
0xE1F3FB02,
0x01E8FE1A,
0x080810FA,
0xEFF8EAE8,
0xDB1F2F07,
0x233021FD,
0x241D09E4,
0xE209F4FB,
0xBCE9E1EA,
0xD6D2DFE2,
0x141302ED,
0xBBEDEACF,
0xE7F914C0,
0xD6FEA689,
0x00E7E7C9,
0x001302E7,
0x1F03C694,
0x151AF91D,
0x21143328,
0x0F0E021A,
0xE4FDF808,
0xEDF50DFE,
0x131F0ED9,
0x0706B6F7,
0x0A0D49FF,
0x141DF812,
0x1307080C,
0xC9FA00F1,
0xF0E9B2D9,
0xE8ECEFD6,
0x07FBEDF3,
0x111222FF,
0x21431D1C,
0x06E30824,
0x16F3111B,
0xCD84FB31,
0xEDDF0207,
0xF3CBECF1,
0xDEB40F28,
0xEB15191F,
0x110914E6,
0xE2070FFC,
0x0931FDDF,
0x17FCA99D,
0xFEE505EA,
0x0C17EDEC,
0x24FCF7F8,
0x22EBDA09,
0x07111E1C,
0xF8FB0C10,
0xE4EFF4F3,
0xF40BFB0A,
0x100C08ED,
0x05EACD00,
0x1DFEF70A,
0xE6E50216,
0x0E17010B,
0x0A1E0E17,
0x131FFCF3,
0xE7DDFF07,
0xC7D3FE0C,
0xDEFB09C8,
0x061AE7E9,
0x1B0A0EE8,
0x00191F15,
0x1014111D,
0x313F0CF8,
0xCAE71423,
0x030E12FF,
0x1A0BFCD8,
0xE601F009,
0x17190922,
0x1C04EEE4,
0xF8F9E324,
0xF70AFE05,
0x14021D09,
0x1C1C09C9,
0xFF15F811,
0xFBFB0413,
0xFAFF0207,
0xFA030304,
0x0300FC08,
0x030006FB,
0x0003F9FC,
0xF1FBF904,
0x37210FF8,
0x1A0D0A10,
0xF0BCF0FF,
0xE7F8F308,
0x14F1E6F2,
0x0201EF00,
0x0FF0F2E3,
0x0712E523,
0x30083418,
0x17DAEE06,
0xEF01F51D,
0xFFFBF8EE,
0x05F706F4,
0xD7142514,
0x03FE05E0,
0xE6FCF7D3,
0xF5DBE42A,
0xF2ED0C0E,
0xFBD6DEE3,
0xCFFF13F7,
0x1B101704,
0x153114F7,
0xF205E901,
0xFBE7D603,
0xE00F0D09,
0x18E4CBD0,
0x2416F208,
0x1F18F9FB,
0x2908C0D7,
0x1212F603,
0xFE071906,
0x10ECE4CA,
0xF4F2EB14,
0x0FF63A19,
0x0AF4EFF8,
0x1703070D,
0xEB05FEEA,
0xEBF30BD7,
0xD9FAD8F1,
0x03F101B6,
0x07FEF0FB,
0x00F9E018,
0xF7DA06DF,
0x140AC8E9,
0x06F007EE,
0xFFE6DEF3,
0x071F0FFF,
0x160DF9FE,
0x10FAF506,
0xFB041626,
0xF500280C,
0xE5101E09,
0x160CFDF9,
0x1EF00823,
0x16F90434,
0x03FA2029,
0xEEF201F5,
0x0CF2F30C,
0x0EFBF40B,
0x24051914,
0x120E100E,
0x1B180D2C,
0x05120DF9,
0xF6011225,
0x02F218EA,
0xCEED06D3,
0xCDD5F610,
0x0DFF0EE2,
0x2503C6F0,
0x1923190C,
0xE4E5DFE8,
0xF7E3E018,
0xE8F503E3,
0x0D0F05EE,
0xF2CCF6EE,
0x1A141214,
0xF3F40D0A,
0xFBFEED03,
0xEDF91E01,
0x0EF3FEDE,
0xFBF30DFA,
0x0AF9F9F8,
0xD8EBCFF6,
0xF9D50BF6,
0xE001140B,
0xF3E2E703,
0xECDEEAFB,
0xCFE8F7FE,
0xFF00CAD3,
0x22E815DA,
0xEC1EF8FA,
0x0F080108,
0x381D0314,
0xFE000815,
0xFE01FCFE,
0x01FB02FA,
0x02030600,
0xF8020BFB,
0x010106FA,
0xDF05FEF6,
0xED0C0C08,
0xF5F4E8D0,
0x12FCDFFC,
0x1FF2E6FE,
0xE4E0E8F8,
0xDCE7D803,
0xFDF2FF1C,
0xFB0E00FC,
0x0BF51610,
0x11DCE203,
0xE0F4F100,
0xBEDBF528,
0x12FBECCF,
0xF7F2EA28,
0x00F7EAF0,
0xCEBDF712,
0xCEDC1512,
0xEFCAD306,
0xD8ED210F,
0xF11009EE,
0xF9011E0E,
0xDC102221,
0x120506F9,
0x11F2F612,
0xE8F9131B,
0x07192419,
0x010C05FE,
0xDCD60D02,
0xDCE7F50F,
0xF6FAFBF9,
0xBBD10B21,
0x0EFAEDCC,
0xF908ED07,
0x0DF40DFB,
0x0ED5E5F5,
0x0306200D,
0xC5D1F3F2,
0xCBC1E2D6,
0x07FF0CC9,
0x0801CF0A,
0xF0050711,
0x0208E20B,
0x23D9FA2B,
0xC8FC3D2B,
0xF50E0809,
0x0526EFEA,
0x0EF1F8FF,
0xE3281B1C,
0x0F2BE0D9,
0x1ACFEB11,
0xEAC7E21B,
0xF8010D26,
0xFF041412,
0x081E2312,
0x3D0FFE03,
0x00FE2939,
0xE6D7C0C6,
0xC4F418D0,
0xE00FF9F5,
0xC9150506,
0x121223FC,
0x05274609,
0x00F4FCEE,
0xFDFE0515,
0x0B080813,
0xC8DE000A,
0xCA0010FB,
0xE1CBBCFA,
0x0201EFE3,
0xF3021B1E,
0x180D10EB,
0xEC08FAE6,
0x0213F6E4,
0xE6DF03EC,
0xFFF3EA03,
0xF01A1206,
0x0CCCE6C8,
0xF9FFE612,
0x090B2B18,
0x11F4EEFE,
0xD6C9F315,
0x090BFAF7,
0x0D00FD11,
0x0CFC0B02,
0xEDFA0617,
0x1104E3E7,
0xF7EFE0F4,
0x0622FA02,
0x19F9EFEC,
0xF517F505,
0x08050513,
0x02F30EF5,
0xFCFF1007,
0x01F8F9EF,
0xFD060401,
0xFFFCFF05,
0xF905FC07,
0xFCF80001,
0x02FD0203,
0xEA02FFFE,
0xFE0805E7,
0xFF141B14,
0x070DF719,
0xE0EF1D03,
0xE6241111,
0xF5FEF300,
0x03F3040B,
0x02F2010F,
0x0BF9F0FB,
0xF6171015,
0xFF00F3FC,
0xFCFA03F8,
0xDCFBFDE9,
0xF2FA02E3,
0xFB03F304,
0xFEE106F9,
0xF400FB02,
0xE8F3F9FA,
0x262600F5,
0x05192D08,
0xFC17F220,
0x000BFEF6,
0xF80C01DB,
0x01DFE7EF,
0x16EFF8FF,
0xE7FBF4F0,
0xFB1BFC11,
0xF622FCE0,
0x1C12020A,
0x1E09FBFD,
0xFEF90E02,
0xF00B0307,
0x0005F3F8,
0xF8DE0BEF,
0xEA2001F5,
0xF6F320F2,
0x15F600E8,
0x0604F805,
0x11F2FB18,
0xF5100011,
0xFDF0FF15,
0xFDFB0B04,
0xF30106E9,
0x0006EF0C,
0x06EDF216,
0xE7FA1A03,
0x07FCF0F7,
0x12EDE9FC,
0x051600F5,
0xFE03F423,
0xDD07FFEE,
0x15FCFEFF,
0x0A0A0CEE,
0xFF09EB18,
0x0DF0FC1B,
0xEDEEFC14,
0xFCF70607,
0xF9FB0302,
0x0AF50807,
0x13FDEAEC,
0x13F8FB06,
0x0600FCFC,
0xEAFBF609,
0xFBECEEF7,
0xF7FDEFF9,
0xFCF7FE0D,
0xFBF200EA,
0xDCE90AF7,
0x242A0503,
0x29F10211,
0x0710E604,
0x0A061424,
0x0E2A15F4,
0xF111FA27,
0xFA26F504,
0xF9DF06F8,
0xF21EF60D,
0x1A03F3ED,
0xE4E6F201,
0x00F70CFF,
0x00FEF503,
0xE1EBEFED,
0x010A0AF1,
0x0B07C1DF,
0xDAEFED00,
0x3F20ECCC,
0xFDF503F8,
0xF8E9FD3C,
0x11F7EF01,
0x12F7E50E,
0x02100704,
0x0EDFF628,
0xE7FD1E0C,
0x04FF1CFF,
0x040000FB,
0x00FBFB00,
0x06FEFAF9,
0xFFFB0207,
0x00F902FB,
0xE6F9FC03,
0xFCDBDBE9,
0xFCF6FD11,
0x090A06FC,
0xFAFBEAF2,
0xC62921FD,
0x490EF9C4,
0xF3E0FA1A,
0xFF0C0DED,
0xE7F0FA9F,
0xE43F2CE9,
0x23FB0B16,
0xF8050E18,
0xFDF3DA0A,
0x0ACCF0F9,
0xE5F0EA15,
0x2908FFF0,
0x0CEDFEEE,
0xEE100F25,
0xFC3D3901,
0x17FDDD10,
0xE0FA1F10,
0xD5F1D7D1,
0x12CAE61C,
0x0805101B,
0x080A1812,
0xFDDAECF2,
0x03E7E9E1,
0x0D12E1F6,
0x231601FC,
0x38E8E403,
0x0D092108,
0x18F2F60C,
0xE6EF11F9,
0xD2E5E9DD,
0x021211D1,
0x2208FEF1,
0x0AF31015,
0x1810F52D,
0x2AE30620,
0xD302222C,
0x001DEEDE,
0x01D8F9EB,
0xD5000F21,
0x0C06380D,
0x151208DE,
0xF923FCFE,
0xE006FA15,
0x18E7EBE9,
0xF2D3F4F8,
0xF3011B02,
0xF7DBEAFB,
0xEEF803F9,
0xF8E73004,
0xE72AF715,
0xEBFA0AF6,
0xF5D5CBD4,
0xF0CF0009,
0xECFFF7E1,
0x06F3EFFB,
0x15F6FDF9,
0xEA01FD1A,
0x19E4D119,
0xFE02EC0F,
0x08D0F4F7,
0xEBDFF2F6,
0x20F3F6DE,
0xFDFA10F2,
0xF6161C09,
0xF7E922FA,
0xECE1FBF9,
0x0C0305F9,
0x04FEF60D,
0xEE02030E,
0xF3E90DF8,
0xEF200B09,
0xF5E9FADE,
0x0AF8FC2C,
0xF0FB1505,
0xEEEBDDF9,
0xC7F601E8,
0xF3EA0FE3,
0xF6E9FC0C,
0xE30FFEF7,
0xF3F5F9EF,
0xCBE6F1E7,
0xD7EECB86,
0x0EECB1D5,
0x0AF610E7,
0xF5F9F4E7,
0xFA08FD05,
0xED01F618,
0x06F41406,
0xD41E25D8,
0xFCFC13F8,
0x0700FC04,
0xFF01FD09,
0xF905FB05,
0x00FEF7FB,
0xFEFFFB04,
0x0EFF0400,
0x06FC0506,
0x15F9EEF5,
0xDAEE0DF2,
0xCBE50015,
0xD9DFE4DC,
0xD322F2CC,
0xF4DCDED0,
0x01F7E503,
0xCBF400FF,
0xE9EFF3DE,
0xCF2313D8,
0xECF70005,
0x0311F9D7,
0x01181613,
0x0CDD02FC,
0xF913F1F8,
0x000BE9DC,
0x0A08F9F9,
0xF60FDAD7,
0x14EDF1E4,
0x16EEF208,
0xE5D8D10B,
0x09BF1211,
0xD92EEEDD,
0xFEDDE7D6,
0xFB160E0C,
0x1AF3FE05,
0xF5FAE400,
0x16DF2113,
0xF6111801,
0xF218F1FB,
0xFBE9FD09,
0xE4CAF9F9,
0xCED6F202,
0xC00014DD,
0xBE0ACFDB,
0x02040208,
0x12060515,
0x0E0C34F7,
0x13F6F116,
0x1407FF08,
0x16FF19EB,
0x3735F925,
0xE2F906DC,
0xF3151904,
0x080B0CE6,
0xFC1ED32D,
0xE2AAF81C,
0xE1F82702,
0x0117ECF5,
0x031113F8,
0x0DFCF2EC,
0x001C080A,
0x192B01F7,
0xF425261D,
0x2608E7EF,
0x03220913,
0x0F031802,
0x1606F602,
0x231C0307,
0x1710F623,
0xFCD8E61A,
0x00170418,
0x0E1E1F1C,
0x0CE40AE7,
0xE80DE4E4,
0x07EBE2DF,
0x0C03DEEC,
0xFEF5EF00,
0xFD12F1E2,
0xED14DEFD,
0xFCF609EB,
0xDEEADEEC,
0xEAD3E1FC,
0x09F0021F,
0x010AFBF9,
0x0FFBD2F8,
0xEDF00EF8,
0xA8F0FDE9,
0xC519DBC3,
0x2C05D396,
0xF9F9FEF8,
0xFDF3FD06,
0xFFFFFCFC,
0xFD07F9FF,
0xFE07FEFE,
0x0103FDFA,
0x02F9F3FF,
0xF801F9F5,
0xFAFB00FC,
0x0102FCF9,
0xFEFC04FD,
0x0703F8FC,
0xFDFBF9FD,
0x07FDF8FD,
0xF905FBFF,
0x040001FB,
0xFBFD03FB,
0xFFF9FFFF,
0xF6FBF903,
0xFCFA0201,
0x02FB0501,
0x0400FFFC,
0x00F7FFFF,
0x01FD02FF,
0x060104F7,
0x0103FC00,
0x04FFF4FD,
0x00FD02FA,
0xFA0101FF,
0xF7FEFAFE,
0x00F802F9,
0xFAFEFAF8,
0xFA06F7F8,
0xF6FA0501,
0x00FC01F7,
0xFAFCF600,
0xFCFEFB04,
0x0305F9FD,
0x02FBFCF7,
0xF5FD0100,
0x02FC0001,
0xF8F904FD,
0xFDFDFFF5,
0xFFFDFEFC,
0x01F8FCFF,
0xFFFBFDF5,
0xFBFF0101,
0x05FA0504,
0xFEF703F7,
0xF70600FF,
0xFFFBF8FA,
0xFBF5F5FB,
0xFE020103,
0xFBFE06F8,
0xF7F30102,
0xF8060003,
0x06F80102,
0xFDFCF7FA,
0xFDF8FBFE,
0xFAF803FA,
0xFFFF0103,
0xFEF802F9,
0x0002FFF4,
0xF9F5FBFE,
0xF8000504,
0x02F7FE02,
0x01FEFDFF,
0x02FCF7F9,
0x02FBF9FE,
0x01F8FC00,
0xF80307FF,
0xFF03F701,
0xFCFCF904,
0xFE02FFFB,
0x04FD06FE,
0xF50105FC,
0x000000FF,
0x05FCFDFF,
0x03F8F7F4,
0xF9FAF601,
0x02FDFDFB,
0xFBFEF504,
0xFF06FCF8,
0xF8FBFBF7,
0x00F505FE,
0x01F90100,
0x02F8FBFF,
0xFC00F802,
0x02F5F7FC,
0xFDF702F7,
0x0301FBFD,
0xFB04F8F4,
0xF80505F9,
0xFF05FA02,
0xFEFCF701,
0xFBF9FB02,
0xFBF5FEFA,
0x06FDFB02,
0xFAFFF8FB,
0xFDFE06FD,
0x04F6ECE1,
0xFCD2D5E1,
0x13F0F908,
0xEFCB0522,
0xE1EF1412,
0xE10E1103,
0x1614FAE0,
0xFFF8D004,
0xE9D2FCE5,
0xECEA060D,
0x0B06FD0B,
0x11E8D6E4,
0xFE05D716,
0x0003FFFD,
0xFAFA0004,
0x03FCFCF8,
0xFFFFFE06,
0x0302F9F8,
0xF1010101,
0xF3F908F5,
0x1101D4E5,
0x28F3FBF7,
0x1C0E0A26,
0xFAF108FD,
0xE5E20212,
0xDBD4C8B9,
0x090CE8F0,
0x1905F4FF,
0xFF09FD1A,
0xF9EE0F0D,
0xE0E6050D,
0xF1ECF9FC,
0x1E05FFF2,
0xF00AFB1F,
0xFDCEF800,
0xF5041216,
0x04F206F7,
0xED0B2304,
0x013720ED,
0xECE7F6FA,
0xD31F1EF7,
0x3229F7E6,
0x1FF20BEF,
0xE4D2DF2C,
0x0208EAF3,
0xF5FDFCE6,
0xFD1D01DB,
0x0F1202E3,
0x33F5D1EB,
0xEDC4F0EF,
0xF6E3D9EA,
0x0B270101,
0x0D01E9F6,
0x17F40C09,
0xF8EE2132,
0x0DF0F2F0,
0x211E0A15,
0x16EF0C1E,
0xD309F507,
0x05260FF8,
0x2E35E700,
0x1CEEFE0F,
0x2BE73D3F,
0xF2DE0510,
0xFE23F90A,
0xF8090404,
0x0F17FC0A,
0x2EF50CFC,
0xF327FA0F,
0x0AED240C,
0x06DB0DFE,
0xF3071019,
0xECE71B1D,
0xE30D13F9,
0x0406E4E7,
0x221C0F01,
0x1B0AEBFA,
0x0AF2E7D5,
0x04FCC80B,
0xE3DAFEEE,
0xE902EA0F,
0x0404F1FC,
0x141106DB,
0x121CF9F8,
0x18DA0BF3,
0xF1FB1A15,
0x02F9FDE7,
0xFD0425F6,
0x1605F904,
0x1C1816ED,
0xFD02E920,
0x06ED12EE,
0x02F6F90B,
0xD82B38FC,
0xD21CFCF4,
0x07BBDFD1,
0xF2EDF9DB,
0x1B08F41F,
0xFBD4F40C,
0xF8DA0817,
0x191D00D6,
0x19EAEC06,
0xE902E3ED,
0xEFF202F2,
0xF0E019F7,
0xE810F1FD,
0x24DCDCED,
0x0AF2FE12,
0x0B092215,
0xFB0DF928,
0xFF150EFF,
0x1C081BEB,
0x06041EF6,
0x08FC0105,
0x030305FD,
0xF8FF0606,
0xFFFDFE03,
0xFCFD0705,
0xBE06FA08,
0xF9F907E9,
0x151415FC,
0xF707F204,
0xE8E608FE,
0x0CDEED0A,
0xE0E82102,
0xF6FFEDCE,
0xE2E3E3E9,
0x13DBBEDA,
0xFCF8FF1C,
0xDEF5EA09,
0xD9F8ECF9,
0x02F3E1E0,
0xD3020419,
0xFD02F7CE,
0xE8D4D5D9,
0xE6DACFFE,
0xFF0517FE,
0x0F1A04F3,
0xDB0B43ED,
0xE0F505F3,
0xD7150108,
0xFCFFFAF8,
0xEF0D0B05,
0xE1FF1400,
0x0E04CCDA,
0xFCE9BE1A,
0x09DEF1FA,
0x11010BF8,
0x1CFC00FF,
0xCFF51722,
0xE7FEFAF7,
0xF8EDE7EB,
0x1E0B0704,
0xFB06EF0A,
0xF90F0D0E,
0xFB090A31,
0x2602CFFA,
0xF3C20BDB,
0xDF04C609,
0x07EB17EF,
0xFC0EEBF1,
0x01080C23,
0xF8F2100C,
0x2A121ADE,
0xD210D8EA,
0xEB18EC01,
0xFB0311BA,
0x071BD2CE,
0xDE01F712,
0x0205361A,
0x0C2A2A05,
0x10202219,
0x1B162929,
0x0C190C20,
0x1D1930FB,
0x05150101,
0x20E5E10F,
0x11F83206,
0x0B211319,
0x0A0B1C1E,
0xFB111D24,
0xE906F0F3,
0xF8000207,
0x0BE2E8DC,
0xCDC8CCDB,
0xC6D8F60B,
0xEA081BF9,
0x03E1F8DF,
0x050A13E6,
0xF1F8EEDD,
0xE4DFE90B,
0x0BF1F0F1,
0x0521F0EE,
0xFACBE9E4,
0x270EE7F4,
0xE6FDEAF6,
0xF9EDEDEC,
0xCEFAE1D9,
0x05CAF2F1,
0xCFE6F109,
0x22E4ECEF,
0xEED8EC2C,
0xD2CC370B,
0xD7F800F8,
0xDFDDFEF4,
0xE6F6F2E0,
0x0B171400,
0x231D451A,
0xFF07F808,
0xF9070108,
0x02F5F7FD,
0xECD7FBF4,
0xF9030DEF,
0x08090505,
0xFDFC02FD,
0x06FFFBF9,
0x0003FEFD,
0x09FF04FC,
0xD20003FD,
0xE7EED7B4,
0x23F6DCF3,
0xFAFEDB2C,
0xF5D4010E,
0xDCEFE4F4,
0xEEE8E9F4,
0xF4F2F5F8,
0xFFF3F911,
0xF0D5F203,
0xC6D70DD7,
0xEB0F08DD,
0x0005FE0C,
0xF1CDE1E6,
0xCFFEFC05,
0xFD2E1003,
0x00090FF7,
0xFB160FE7,
0xF905EBDD,
0x07DDFBF4,
0xD800030C,
0x0B0700F9,
0x08DCF5E6,
0xFCFC2DF1,
0xFB0CD6D0,
0x0D14F70D,
0xF30B0300,
0x071BEC14,
0x13EBF7DE,
0xF60D00F5,
0xFF2A19FC,
0xF10704E5,
0xF9101301,
0xF1CBC318,
0xDAFA031F,
0xF7F5F50C,
0xF8F408F3,
0x0F08020F,
0xFF01FF09,
0xE7F819EB,
0xF6F4DDE4,
0xE8FFF310,
0x0B0120F1,
0x101AF9DA,
0x00EFD9E7,
0x08E9E0CF,
0x27040205,
0x19F9FDC1,
0x1EF0D52F,
0x0728041D,
0xF0D8F612,
0xFC1C230E,
0x032B2912,
0x380207D4,
0x0AE206E4,
0xD211FC18,
0x0DFAECE9,
0x21322439,
0x101F2614,
0x1620D6F9,
0xFCF1FBF2,
0x0C0BE0FC,
0xECF6F0DC,
0xD703EAE2,
0xCAF2F3F5,
0xEDFD2C01,
0xEAFCF3E4,
0x0606F8FC,
0x04F4EDFA,
0xECEDF709,
0xF8ECF5F4,
0x2816F6E9,
0xF5F62C19,
0x2101F324,
0xE4F4E806,
0xDEF8E210,
0xECD7DAE2,
0xFA0A0F03,
0x0CD9C528,
0xF4CB2704,
0xEBFAFDE8,
0x03FAEAE3,
0xF80414FA,
0x01F3DFE1,
0x06E8D300,
0x08F8FA06,
0xFEF51708,
0xFA110B11,
0xC9DDF302,
0xED02CEC6,
0x0DE9E6E2,
0xF1D6EEF3,
0x04031C09,
0x211630EA,
0x06FDE913,
0xFA030503,
0xFD030303,
0x02F900FF,
0xFD06FBFC,
0x00030201,
0xF8050500,
0x0CF7F901,
0x0DDDEAE3,
0xF4FEEAEB,
0x1D04D40C,
0x1CEBF000,
0xDA031907,
0xE0F4E2DA,
0xF0E3F7D0,
0x0206CCDE,
0x00180900,
0xF10A1A22,
0x0AEFD9F0,
0xF0FDFAF2,
0x371DF8FF,
0x2705C8FE,
0xD7A4F828,
0xC4C6E5E2,
0x150A00E4,
0xE1F6D1E8,
0x13F4E7F8,
0xDDBDDDFF,
0xEBF00407,
0x1004E7DD,
0xF4E514F9,
0xEC2217F0,
0xD8FEFD1B,
0x0DD3F004,
0x06BAE5F2,
0xE7E50900,
0x0111E60F,
0x12FF161F,
0x090AF406,
0xF00BEDE9,
0x1504ECF5,
0xFBF8ED07,
0x01F6F5E6,
0xEF111009,
0xFD03DCE0,
0x2F11022E,
0xFE04FD31,
0x060303FB,
0x220ADFD4,
0xFE00ECF4,
0xE7D4FBFD,
0xDA0915F3,
0x0201EFE5,
0xD4F2061C,
0x030410EB,
0x0804D9D9,
0xE4E907FE,
0x0BD0FDEC,
0xF8F7FFF1,
0xD6E41D23,
0x132E0BEA,
0x2E03EC1D,
0xFE031A17,
0xECD4F5E5,
0xBDCA02E6,
0xB7D0C4EA,
0xE7F1ED08,
0x0D030C08,
0x190A2201,
0xEFEEE2F9,
0x350B11FA,
0x28ECE011,
0xE5C3E410,
0xC4E2FAD2,
0xF9FFFFE7,
0xE9F4E5F1,
0x0AF5EEE7,
0x05060EE6,
0xF00D02F7,
0xFFFA06E0,
0x0F1404F3,
0xF4FB2422,
0xF9FFEE03,
0xFCEAE7CB,
0x130107F9,
0x1813CD00,
0x10BEF214,
0xFDD80009,
0x08E8F305,
0x28300D12,
0xFE031C06,
0xC31003FA,
0x11E4CDCD,
0xFA05ECE0,
0x0E23290A,
0x12F81401,
0xEC0DF20D,
0xE4FFED16,
0xF6E00320,
0xF6DA0AFB,
0x0803FD17,
0xFBFC0002,
0x01060505,
0xFFFD0705,
0x080801FC,
0x08FD04FF,
0xFDFA03FA,
0xD7E5E3E1,
0xFDF20B17,
0x151B011B,
0xD7BA2C1B,
0xC70C11E8,
0x0310F5F7,
0xE8E72125,
0x12210717,
0xF1EDFA0A,
0xD61102E1,
0x1010FC05,
0x0A0F1120,
0xD3E804FD,
0xF4DBFCF9,
0xE60517FD,
0x08010FEB,
0x091D08F5,
0x1313FD09,
0x221BE6F8,
0xF50A0B06,
0x0A120610,
0x0FD1E2E8,
0xF6F02410,
0x00110EF9,
0xF101F8EC,
0xEE260EF1,
0x2613DA11,
0x1607FBEC,
0x01FC1F0D,
0xEA00EE0B,
0x08E8EEF8,
0xE7171716,
0xD9D2DBF4,
0xBDCF0C15,
0xE4FD03EF,
0xDA0AE0E6,
0x02F60400,
0xE6E0F402,
0xF2DB1D14,
0xEAF4D4D6,
0x07CEEEEC,
0x170D1A0F,
0x17251015,
0x0825EAF6,
0x1EEFDDE9,
0x1F231B15,
0x1AFBE311,
0xF7C4DA13,
0xF20B281C,
0xFF170617,
0x01FD0B08,
0xED18050F,
0xF30A22E0,
0xF00CD3DB,
0xEFFDE9D8,
0xF9EAEEED,
0x2D351F13,
0x1C13FBF4,
0x0B08E4EB,
0x15DCE3F4,
0xF9D0DE10,
0xCDD5D9ED,
0xD4230AFB,
0xE6CFEFF4,
0xE9140DFA,
0x0A14FBDA,
0x0F1104EE,
0x050FDB0D,
0xF2F30C0E,
0xFBF2EDE3,
0x1F19F906,
0x08041DFB,
0xEAF2F106,
0xFDF8FF1D,
0x0FFDFC12,
0xF4EED9EB,
0x2EFE0C33,
0x13211228,
0xC6CD191E,
0xDF1003D9,
0x3D1AFCCF,
0xD0DCF3FF,
0xF3D5E7DF,
0xCEC6D0E9,
0x1DCDFEFB,
0xF3DCEEF5,
0xE8EBFD13,
0x1621F806,
0x19011F19,
0xFCF108E9,
0xF502FDFF,
0xE1F014F2,
0x22090301,
0x0002F700,
0xFD020100,
0xFCFD0600,
0x03FF0103,
0x06000400,
0x050A0504,
0xEF0504F7,
0xE7ADF1CA,
0xE8F1D8FF,
0x2DEB25FC,
0xF81FE2F0,
0x0AD1F1EF,
0x08EEFBF5,
0xDBD5CDCF,
0xEAE0BAD0,
0xF3F7EDC3,
0x11250908,
0x2DF00E05,
0xE5DAEC11,
0xB6A7FB03,
0x130400BD,
0x0BFCF80B,
0x340A251A,
0x080A0E03,
0xFBD3D916,
0xF3F31506,
0xFC0FAEDE,
0xCAD0F6E4,
0xC8F409E1,
0x1D24FDE0,
0x15FE201F,
0xFF0D0205,
0x20D3D9ED,
0xEEFE02DB,
0xF631F71D,
0x1B2712F9,
0x21F2FB04,
0xC5B0DC2A,
0xC2B6E1FA,
0xF904CED7,
0x0320DDD0,
0x06020103,
0x2800FF08,
0x01DEFCFE,
0x39142717,
0x0FFEF936,
0xFB0A3D01,
0xFF1CF0F9,
0xFEF9F7F2,
0x0CFAF50A,
0x4E0F3F22,
0x0EF50126,
0xEDE00324,
0xE2EEF6F3,
0xF7E0FFD9,
0xF9D2D7D1,
0xF5020BE7,
0x1D382B09,
0x15031117,
0xEDFE050B,
0x01F7F607,
0xF0DAE3C7,
0xFDDBEADB,
0x1B09021A,
0xFF07E749,
0x1DF734FD,
0x02120002,
0xEDD8FC0C,
0x000C1419,
0xBBCCF41E,
0x0B12DA9A,
0x06FAECEF,
0x33023021,
0x010D0C0A,
0xF1E3DF08,
0xE9060DE9,
0x02EDC6ED,
0x06FA12EE,
0xF9000313,
0x01F70E0D,
0xE2E707EA,
0x091007DA,
0x17111118,
0xE4E712F3,
0xFEDBD2D6,
0x060BDBF2,
0xFBD7F6FA,
0x1DF2F70B,
0xD3050C10,
0x222932C0,
0x0D2614F6,
0x0D0F1514,
0xFB071D15,
0x11142A0D,
0xE6AEFCE3,
0xC1DDD9E3,
0xC707FE1D,
0xFCD2FCDA,
0xF0FEE50F,
0xEBDDD5F5,
0x010805F8,
0xFF05FC09,
0x010307F9,
0xFA0706FA,
0xFBF702FE,
0x0402FB05,
0x06FEFD08,
0xACD20322,
0xED1C332B,
0xFC2429F2,
0x12FC2806,
0x0D07E703,
0xFB041506,
0xDAFE1750,
0xF21228B1,
0x0403F8FB,
0xEFF70E08,
0x0EEAF106,
0x0D121612,
0x0BF6FF0B,
0xD1CADDFB,
0xCDF609FE,
0x242807E0,
0x1A1905F5,
0xE2FD0DFD,
0x391201FE,
0x18D20001,
0xD6E9D4EF,
0x00F9FF06,
0x030DF9FB,
0xF2DCFF0E,
0x2501F0F4,
0xD9DDFFFF,
0x111E2419,
0x1407000C,
0xE7080525,
0xF20913F3,
0x090F1205,
0xD30D1734,
0x17211FCC,
0x14FEC502,
0xFDFA0A0F,
0xE6E708FB,
0xEE0101FE,
0x07EBEF01,
0xDFE0150D,
0xD2F9EEF3,
0xE1E62100,
0xE60E03F4,
0xD9EF05E4,
0xFEF7FDF2,
0x11231AEC,
0xE1E1F9FE,
0xF8F809FB,
0x11150505,
0x0C1B10ED,
0xD50FFD11,
0x4C04DABD,
0xF71BF7CB,
0xDE0FFB0C,
0xDAEF0AF3,
0xDC12EAE0,
0x0400E904,
0x0BF2D109,
0xF9DE0ADD,
0xDEF10D1C,
0xEBEBE1D6,
0xE405D4DB,
0x120DE9E7,
0xF0E90A0F,
0xD5CAD9FE,
0xD60401F6,
0x102C0701,
0x191DFE0A,
0xF202241C,
0xFAFA0C07,
0xE0ED100C,
0x0DFB0417,
0xF413E510,
0xFDEC1306,
0x031E0A19,
0xE9DFE4E1,
0x1207E5E3,
0x180F142B,
0x100513EA,
0x2201F233,
0x20061108,
0x05FC1916,
0xD6EBF6CE,
0xFEFACEEA,
0x03FAEA00,
0xF8F1F1EA,
0x2007F4E8,
0xF5180BFD,
0xF001F72E,
0x1107E1EE,
0xEAEB22F5,
0x0FF8FF26,
0xF41226D6,
0x1A350B22,
0x02FD200F,
0x08F904FF,
0x06FEFA06,
0xFD08FB09,
0x04050306,
0xF9060702,
0xEA00FDFA,
0xE8FEF5DD,
0x0CFAFBF8,
0xFC19F606,
0x22031405,
0xEF0011F7,
0x0508EF08,
0xF409F5FE,
0xEFE7DBFD,
0xE207E0EF,
0xED351A06,
0xF70B3B02,
0x07FA1AFE,
0xEACEDA09,
0x2408EDFB,
0x05E7F71F,
0x01D6FF15,
0x0B0CF6D5,
0xE7FAF616,
0xE1F715EF,
0x0E08D601,
0xF5C9E90D,
0x03E8E91C,
0x02F5E2F5,
0xE2D50B10,
0x0DE8FDF2,
0xEF180014,
0xEBE5DE06,
0xC6CFE312,
0xEFEB1C10,
0xF6FBF3FD,
0xFC0C0D19,
0xF7F2E8E1,
0x121405DD,
0x0BFED0FA,
0x0708F40D,
0x15101516,
0xF30315FD,
0xFCDEFBF8,
0x191B0F1A,
0xFDD6333B,
0xE0E4190F,
0xE500DFF5,
0xF2FAFA04,
0x04F90612,
0xD607E1D7,
0x09F618E7,
0xEF2BE410,
0xF3FE190B,
0x2DFAF0FC,
0xE5FF0C0F,
0xEA1018FD,
0x230711F5,
0xE0F20507,
0x2226FC0A,
0x2CEE0E0B,
0xF8250A23,
0x19060232,
0xDDEDFFF9,
0xE5EAFEF8,
0xF7F10305,
0xE8FD1002,
0xF60918DE,
0xD8CEDEFF,
0xFAF4F5F7,
0xFCFF151D,
0x220407FC,
0x0DEEDBDA,
0xEE07F50A,
0xE301DFE0,
0x0D03D9EA,
0x05241513,
0x0E131A10,
0x07081104,
0x14131100,
0xEFFB1E0E,
0x06EEE4EE,
0x251CE6DF,
0xFDE9F71B,
0x000CF817,
0xDFF30806,
0xFE0809E4,
0x21F5D5EA,
0xF5DDF022,
0xF90507FB,
0xF40006EE,
0xF3DA0BE7,
0x0FFCF500,
0x11ECEDCD,
0xFBD0FE1A,
0xDEECF405,
0x02E4020B,
0xF80F07FC,
0xFBF80A03,
0x0502E31D,
0xFF08FCF9,
0x06FCFF04,
0xFF06FE00,
0xFB030101,
0xFEFAFEFD,
0xE8F70402,
0x062BFCFB,
0x0AFED1E5,
0xDDE1FDF9,
0xF1F308F6,
0x08DBF809,
0x0B04FE13,
0x11FAD0B6,
0x03FFF50A,
0x04060B0F,
0x05EEDFE2,
0xC7CEE60B,
0x11FFFBDD,
0x0BF5FE0B,
0xC7D72210,
0x07160AE0,
0xE6E1C0C1,
0xF9F7D431,
0xFFE009F2,
0x141C161F,
0x06173501,
0xF609F307,
0xED071C00,
0xFDFEE9ED,
0x1803ECF3,
0xE8F9EF0B,
0xF60403F5,
0xED15F907,
0xE3EFE9DE,
0xDAF9CBB5,
0x2903C4C8,
0x06D907E6,
0x09DAF9FE,
0xFA0E0115,
0xF8FB1A07,
0x0DE4FDFB,
0xFBF504F4,
0x180E0EF6,
0x2533E20D,
0xFFDF0943,
0x0F09E518,
0x12F228F2,
0x0926F425,
0x17FAFE02,
0xE6DC0C0A,
0x06E40812,
0xEC0914F2,
0x11F70A11,
0x0D160DE1,
0x0BFC1BFA,
0xF71BE104,
0x13121D20,
0x0002F909,
0xF004F312,
0x0EEE271E,
0xED0E2112,
0x190116F2,
0x0C201DF5,
0x20FBF6E5,
0x0102DEFC,
0x150CE311,
0x26BF07FB,
0xECF415FD,
0xE9F1FEF1,
0xCB02320B,
0x080BE7CC,
0xB9C6BEB5,
0xFAE5DF08,
0xF8FD10F2,
0x0EFF1301,
0x020606F8,
0xDE12E3F6,
0x03DBE90A,
0x060F05E6,
0xF628E80C,
0xFA0612E4,
0xE01DFCD2,
0xE5F1E1E4,
0x09CFEAC9,
0xF1F202FF,
0xF9EB01F7,
0xDCEAFAF7,
0x381C1DF7,
0xEBE2C640,
0x0CFB2917,
0x051615FB,
0x1515FF0E,
0x140D0F11,
0x1A23EB0A,
0x21112D1C,
0x2D170B07,
0xE8041514,
0x0EF7FBD9,
0xD6F8E2F8,
0x0505F500,
0x030206FB,
0xFA0600FA,
0xFC0305FC,
0x02000502,
0x000304FB,
0xD70201FC,
0x4C23F2ED,
0x1F0EF0EE,
0xF9E9D008,
0xEA0FE904,
0x070B1B09,
0x1303141E,
0x3420FFBD,
0x05F0C04A,
0x1E223420,
0x17DBFB09,
0xD106F8FF,
0xF1F2E4F4,
0x1A12EAE8,
0xFD161A0B,
0x0E221702,
0xFC1116EF,
0x15FCFA0B,
0x09F907EF,
0xC8FFDEE9,
0xD21E2805,
0x373227DE,
0x41210BE7,
0xFA11041F,
0xF0EEDCFF,
0xE0ECFCFC,
0x2A0704D7,
0xFB00DEC0,
0x0BF60500,
0x01FCB3CF,
0x03E5E5EF,
0x1209FDEB,
0x13FCDFA9,
0x0415ED1D,
0xFD07401A,
0x121802F7,
0xE211FA11,
0x0A1406EC,
0xD40E14DC,
0xF629DED3,
0x2001FCCA,
0x1A03FB0A,
0x11001E12,
0xCDEEF604,
0xF80AD0D6,
0xF7C5CFDC,
0x1AEFEEF4,
0x1F0D07FD,
0x171CF217,
0x05021242,
0x15011E27,
0xBFD01231,
0xFB222112,
0x1C02FBDD,
0xF1E6001D,
0xFA092005,
0x072B24EF,
0xDD1107EC,
0x071905FD,
0x1306D1EA,
0xFCC8DF0E,
0x02E3F805,
0xFBFE1724,
0x22FDD402,
0xF91B000E,
0x08172808,
0xF90A08EB,
0x14080807,
0xFBF700E5,
0x04EBE6F6,
0x0D0FFE02,
0x021604FE,
0x0B14FD15,
0x02060116,
0xFA1200FB,
0x0FE6FFFC,
0xC8F1011A,
0x05011ADE,
0x090BD5E5,
0xF1EA18E0,
0x0C181802,
0x2C341D12,
0x0105F601,
0xD6E4F8E9,
0xED01CBCF,
0xE8022D04,
0x0526170A,
0x060906F0,
0xFFF9E426,
0xE803F307,
0x051403E2,
0x390F10FB,
0x0BF50C0A,
0xDAE3010F,
0xFF01FCD2,
0xFD02FC02,
0xFCFBF9FD,
0x0700FAF9,
0xFD0101FB,
0xFEFBFE03,
0x11FD03FC,
0xF3050310,
0x0CF302F7,
0xEDDFE0DE,
0x1B18EBF8,
0xF50736FE,
0xF7050903,
0xF6FCEAF0,
0xEDFD00DE,
0x10ECB4EC,
0xD200061F,
0x0908170A,
0x12140A02,
0x060BE923,
0x06FA1714,
0xE30400F6,
0xECD3D4EC,
0x280A1617,
0xED10190E,
0xF8E20701,
0xFFDC08F1,
0xB109FCF8,
0x16F600F3,
0x03EBDED3,
0x10FFF5F6,
0xDF10141E,
0xD7F3E1CE,
0xE3E6F9DC,
0x1F2A0BD9,
0x1216ECDF,
0x0B13250D,
0x22121006,
0x04E9F900,
0x130CFBF7,
0xDFC0D409,
0xF5E3DDD9,
0x2E160F06,
0x0402FE05,
0xFD000506,
0xEFF60BFE,
0xEB2D1AD3,
0x06E0F4B5,
0xC3ECED05,
0xE70814D9,
0x0205F003,
0xFF1A1807,
0x070CEE01,
0x0C11DBF5,
0xFDFF03AD,
0xFAEB04EE,
0x0818E804,
0x0101F5F3,
0xF9E2FBF9,
0x01F00829,
0x08121709,
0xEEBAE500,
0xB1C604D6,
0xF0DFE6D1,
0x0B03E70D,
0x07FC0002,
0x071A2F04,
0xFA01EE00,
0xC8BADAF6,
0xFDFE0601,
0xF5DC1412,
0xE21517F6,
0xEADB0406,
0x04FF130E,
0x171D10FF,
0x00EE05F3,
0xEFFEF8FC,
0xF00AFBEA,
0xE601F8EB,
0x0E15F6E9,
0xFFFE1403,
0x071EEFFC,
0x0520090E,
0x06ECF611,
0x070609EF,
0x13FDEC0D,
0x08FF1012,
0x03120F00,
0xECEE041C,
0xF4F316F8,
0xDBE6D9FC,
0x0AE0F206,
0xF0F0EBF2,
0xBFD8EA10,
0x222CF70A,
0x25E90E10,
0xED010FF4,
0xF7F5DBFE,
0xE1CF0805,
0x11030C0A,
0x060307F6,
0xF9FFFDF8,
0xFBFAF904,
0x0300FFFC,
0x09FE09FA,
0x080502FE,
0xEA01FF00,
0x07C004F7,
0xF5EAF012,
0x2CFC32E8,
0xE5070B12,
0x01FAFEFC,
0xFEE1F004,
0xE6C3DC0C,
0x13E7EDF2,
0xDDDEFC04,
0x060C0EFE,
0x3CFDFFF5,
0x0A03FA0F,
0xCFC0E41D,
0xC6F400BE,
0x001116FB,
0x4118351A,
0x1F1C14F2,
0x000FEA11,
0xF4E5D0E8,
0xD615D6F7,
0x04F5E3E8,
0xFEE6DFD6,
0xFD0AFBF7,
0x00FAFFF5,
0x191A01FE,
0x20F3E2D9,
0x050F06DE,
0xE8380819,
0x112F0CF1,
0x1D2211F9,
0xEBF9020F,
0xBBE1EF0B,
0x0EF1C3D8,
0xF914FAF2,
0x04EF0D01,
0x0CFE060F,
0x190109F2,
0x09FE0F10,
0xFAFCF82F,
0x00FE3CFA,
0xE900EDFF,
0xFAD90CF7,
0xFF15EFC1,
0x38010D18,
0xEEE9FD11,
0xF4EC0724,
0x15F010CD,
0xEEE8F00A,
0xF901FEFB,
0xF2E8E7DC,
0x1B391400,
0x10F8160F,
0xFDE4FFF0,
0xEAE0EEE1,
0x0DF2F1D6,
0xFDDED8E5,
0x351DFD12,
0xF0FED73E,
0x05DD16FD,
0x1200DCC8,
0xF6E9D4FB,
0x1B110112,
0xCDD6ED14,
0xE000C7C9,
0xFC1F0DE8,
0x2F062E17,
0x00150D06,
0xFC0FF417,
0xEDFEEE02,
0x1EF6E203,
0x1E091107,
0x13FCFF10,
0x08040918,
0x12F4FA07,
0x0712F505,
0x04071A13,
0xCDEB110A,
0x0DD6CBDE,
0x02F1E9E9,
0xFCF6FEFA,
0xFAFFF80A,
0x2DE7E6F7,
0xF2DFE442,
0x05ECFF16,
0x1FF8FD01,
0xFDD6FC15,
0xEAFD091A,
0x1C340DF0,
0x14F44633,
0xE6FE0406,
0x07E11303,
0xDDE405E9,
0x08F3F521,
0x04F8FFF0,
0x06FE0A01,
0xFB0401FC,
0xFBFCFEF6,
0xFF02F6FF,
0x010EFA05,
0xD4F907FE,
0x17E0BFA3,
0x1C02D202,
0x25DC1639,
0x0012F4FA,
0x0BEBED09,
0xF8E2F20F,
0x06F9CDCA,
0xEED7CE37,
0xFEEF260F,
0x1909111B,
0xFAFB19FB,
0x0201FB04,
0xAF84D5E4,
0x041F0FD5,
0xF9451310,
0x15ED1F04,
0xF408FA06,
0xDDE0E6DC,
0x1BEDFFFE,
0xBA1BF2FE,
0x1FFFEB06,
0x11D5FAF1,
0xFF180B0D,
0x1404FE1D,
0xE6FDFE11,
0x2DE9E1E1,
0x1A01F1ED,
0x151B001C,
0xFC0FFC00,
0xF31FFB08,
0xD8F5E700,
0xE9D8EFD3,
0xF4F6B9F5,
0x0C2716FD,
0x10D6F013,
0xF5E5F61C,
0x0608F2F1,
0x32142D10,
0xFF0B0419,
0xFDDE25F2,
0xF6EFE90D,
0x01ED00FD,
0x03FB10F8,
0x4314141E,
0x1ED4F113,
0x14F81145,
0x07F73FFB,
0xF9301110,
0x1E07F3F8,
0xE30405FF,
0xEE413D07,
0x0A341801,
0xFC00F0DC,
0xF7DFF3F8,
0xF9F90AF9,
0xF503F5FA,
0x322C3F4E,
0x14210935,
0x07FFF702,
0x0EE3F0F3,
0xFFE7090C,
0xFDF7081A,
0xB2ACDCFC,
0x1512F0A7,
0xF612FE05,
0x07EE0F0D,
0x040BFF22,
0xE3F4FAE6,
0xD1F90CF0,
0x2410E1DE,
0x17110213,
0x041AF61C,
0x0F0C0D05,
0xF2F9E2FA,
0xECFEF9CD,
0x09041300,
0x03FD1CFD,
0x17D6D80A,
0x1015191E,
0xFDFDE5EE,
0xF009FC23,
0x1AEFFE15,
0x07ED0244,
0xF8E92E21,
0xDA020EFD,
0xD3E6F5F4,
0x0617ECDF,
0x0D202FE0,
0xFA0D560F,
0xF60310FE,
0xCFE8F50B,
0xDFF4FA09,
0xDFE0FBE9,
0xFBFF15EE,
0xFC060107,
0xFA07FFF9,
0xFC07FC03,
0x0301FBFE,
0x06090300,
0xD002FEFC,
0xE6EEE4D3,
0x28FDDCEE,
0x0CD6E33A,
0xE5DB1521,
0xC6E6EEFC,
0xE30EFBF6,
0xF5E8EA07,
0x04110715,
0xF7D5121E,
0xC7E41B03,
0xEF19F804,
0x121616FF,
0xD3CFF3EE,
0xDCDDF0D1,
0xE8242807,
0x0522FDF1,
0xF80EF1F9,
0xFEFF00D1,
0xE3F9EBE0,
0xEB07F3ED,
0x1A0DD200,
0x0FCE00F4,
0xF2F11428,
0xE611E6E5,
0x1D1C0909,
0xF915F703,
0x1F0BFD02,
0x19FA0906,
0xEDF8F50B,
0xFC1C0805,
0xEC0004EF,
0xEFF50826,
0xF9E6C40A,
0xE4E1100A,
0xFCE50007,
0xDD12040D,
0x0313191D,
0xEEF8F0EE,
0xD6F944F7,
0x05F2DDC9,
0xF8C5E3EF,
0xFDF80008,
0xF90A0EEA,
0x0DE3E9EC,
0x0EDAE0F4,
0x2305F5FE,
0x10FFE4EC,
0xEDCEE31D,
0xEA130C1D,
0x04EFF614,
0x0725230A,
0xF51E0F08,
0x090B17CB,
0x050605CF,
0xEA1B0AF5,
0xF902E0EB,
0x2D322D2C,
0x0C09131F,
0xF413DDFF,
0x12F2DCFA,
0x06EAE7FC,
0xDCE1FED5,
0xE504E5EA,
0xE301D0E1,
0x08201B07,
0xFC02F3D3,
0xEBF9E807,
0xFFFE01E8,
0xEFEED6F7,
0xEDE2F604,
0x121C05F7,
0xF8F109F3,
0xE6EEEB09,
0xF8F0ED14,
0xF5F2F9FF,
0xD2E0EA0C,
0xFEEB0E01,
0xF6F9D916,
0xE1D31EFB,
0xD3FB0AED,
0xF5E1E9C9,
0xFBF7F8F7,
0x000BFF0E,
0xF20208F6,
0x05090E02,
0xFAF4171A,
0x04FAF4F5,
0x10F4E8F9,
0x05100109,
0xDCF6FFF8,
0xFBEDFFF4,
0x0DFC0F03,
0xF911E9FA,
0x04FF0AF7,
0x04FA00FD,
0xFE07FE00,
0xFD0105F9,
0x03FFFEFA,
0xFAFD0100,
0xF3FB0505,
0x1DF4EDDD,
0x0703010B,
0x0414F614,
0x110BFB05,
0xF7FA0AFD,
0x08FEFAF5,
0x0F060EF4,
0xF1F70D1E,
0x090716ED,
0xFB090816,
0xF5F4FAF1,
0x04000201,
0xE9EBF4F2,
0xF7FCFAEC,
0xE609FBF4,
0xFEFEF3EC,
0xD7F0FDF0,
0x0D02F9F0,
0xF3F3F2E8,
0x02000EF4,
0x0B090CFD,
0x00FA0305,
0x0AFBF718,
0xE001FFF3,
0x01F5FEEF,
0xE901F5E0,
0x07E2EDFC,
0xF0F91502,
0xF1F5F7FE,
0x09EEFEF7,
0xFF08F412,
0x05E1EFEE,
0x08F2E7F5,
0x10FB1E04,
0xFA01F917,
0xE0FB0AFD,
0xFF0D07F7,
0x0303EBF1,
0xFCEBFF0D,
0xE3EC09F7,
0xEB04F505,
0x1DFC0DEE,
0xE5FFDCE7,
0x03DBF7F1,
0x0EF0F71A,
0xE6F0F8FE,
0x13F7EE10,
0xF704FF06,
0xFEF11B11,
0xF5F9FA0E,
0xF5FFF9F2,
0x02FAFBFD,
0xFAF8FC01,
0x00F900EA,
0xFEFD0907,
0xF9080BFD,
0x08021AF7,
0xF9FAEF04,
0xEDFDEAFD,
0xF701EFEF,
0xFAED04F7,
0xEEFA05F1,
0xF10601F1,
0x0306EFEE,
0xF00F02F6,
0xF3FAFFE8,
0xF1F2F208,
0xFFF1E8E8,
0xF200EBFB,
0xFE1706EC,
0x0F0E0910,
0x060400FC,
0xFA020505,
0xFD0EE3FD,
0xE7000B0C,
0xF8FAFAF2,
0x0EF3EEED,
0xECFAF8F4,
0xF004FF0B,
0xF30B0A0D,
0xF311F3F3,
0x011F2A01,
0xFA11F9E6,
0x0A1EF800,
0xF6DFD4FA,
0x1907CACE,
0x1CF8E2D6,
0xFC0808EF,
0x13E7DBF4,
0xDEFF1B09,
0xEF160325,
0x03DA1600,
0xE72407EE,
0x0407E3F7,
0x0301F705,
0x03FB05FA,
0xFDFCFB05,
0xFC03FCFD,
0x01F407FD,
0x01FA0505,
0x172C0308,
0x1503190C,
0xECF0C70C,
0xD8F107F3,
0xE5290107,
0x0C2901D5,
0x05D7ED0F,
0x17FAF0FA,
0xFB12DDE7,
0xF00B0BFE,
0xEF0D0CD1,
0xFFF8FF08,
0x110AD700,
0x000AF900,
0xFBF7F9F6,
0x1EFCDFFF,
0xFE13EADC,
0xE2FBF40A,
0x211E1CF1,
0x1703EE00,
0xEFF02419,
0xE904F6F6,
0xFAE70920,
0xF6162905,
0x00E4D2D3,
0xFCECF012,
0x19110A17,
0x0C1409F1,
0x06E71D13,
0x15011F0A,
0xEFF9D7EE,
0xFFF7F5F0,
0xEED0FCF0,
0xEB04D6DD,
0xF81B16E0,
0xE604E1C8,
0x0CEBE101,
0xF7CCE50D,
0xFD2100EF,
0x08E6131C,
0x14070B24,
0xE6F000DA,
0xFB10F715,
0xD40504EE,
0x01FE06FA,
0x021DFCEC,
0xFB0AFB06,
0x1BD10CFF,
0xFCF1F122,
0x03262BF5,
0x09CFD1FD,
0x08E9F0E9,
0xF9FEEEE8,
0x0527E50E,
0xFC121AFE,
0x152AF5F5,
0xEDBEF42A,
0xE20423FD,
0xE9070E0D,
0x0B130FFB,
0xEFF8FD0B,
0xDCDFE315,
0x06FCE8F4,
0xE8FAFC0D,
0xFEF3FACE,
0x02E0C6DE,
0x1DECC9C5,
0xF7FDFE08,
0xF3D410F4,
0x06070EFF,
0xFA02F6F1,
0xDBF61701,
0xE9F2EAF3,
0xFBEA1C0C,
0x0C26F1F7,
0xDEFDFBFA,
0x180D0207,
0xFFFDFEEA,
0xF30CF5E6,
0xD1FEF4E4,
0xFAFF03C7,
0xE7E2E201,
0xF10FFBD9,
0x0007EEDC,
0x23EEE8E5,
0xF5D8031B,
0x01F5061B,
0x1109D5F2,
0x0ED7DF0D,
0xDCDDDEFF,
0xFBD218F4,
0xDA1FF9C0,
0xFE0FD1DD,
0xFC06BEF6,
0x0406FC03,
0x00FEF808,
0xFC00FFFC,
0x05FEFC00,
0x0401FE03,
0x110204FE,
0x02F5F1F6,
0xF7EAFFFF,
0xD8E81412,
0x1F2018D8,
0x37F2E4FD,
0xF2DAF545,
0x0E0104ED,
0xEF130411,
0xE71AE4FE,
0x2004CDE3,
0x0700E402,
0x171004FD,
0xE2F9131E,
0xFAFAF6DF,
0xE0DDE5DA,
0xE9ECD2CF,
0x1211F016,
0x110E2603,
0xEDE90A1E,
0xFDEFFF0B,
0x1E02FC12,
0xE5E0190B,
0xF70FF3FE,
0x02DC1001,
0xD8EEEE13,
0xFC1B2B00,
0xD704EEE2,
0xB1DCE1CB,
0xC9E9BEE2,
0x10E6D4C9,
0x22E90AE7,
0x070C1C09,
0xDE16121A,
0xFBFC14F3,
0x1311E5E8,
0x0EF9EAF2,
0x121C1711,
0xEEF303F8,
0xF7E4FCDC,
0xF904E8F3,
0x13062801,
0x032AEBF0,
0x06C8E51C,
0x09FAE509,
0x01B0CDEC,
0xBAF81006,
0x210FCAE8,
0xFFF2F9E6,
0x12171021,
0xE1210FFF,
0x12171F14,
0xF9F8E0E6,
0x0BF4BE05,
0xF7A40E25,
0xCFF9141C,
0x05090406,
0x212D2A02,
0x12E3E4FE,
0xD3E5E019,
0x06DFFC10,
0xD9C209D3,
0xCAE7BDCF,
0xD8FA25DD,
0x02FA12D9,
0xEAD2D1F0,
0xDDD8F3E2,
0x1100000C,
0x0E0D2414,
0xFE0E0F04,
0x03EA02ED,
0xD5EAE4F5,
0x08EFFFF1,
0x19F80EF6,
0x103A0A0E,
0xEE0B0E18,
0xBACF05CE,
0xA6F01505,
0xE2DFEDCB,
0xE113CFE7,
0x23E6E802,
0xE5000516,
0xDEE5E6F5,
0xE5F909E0,
0x03F6FAFF,
0xEAF211FE,
0x0FF6E906,
0xF9F1F1E5,
0x0EFCFC37,
0x04FFFB12,
0xFBFC0207,
0xED211306,
0xE61D1505,
0xF30BECE4,
0x0602EFFD,
0xFDFDFCFE,
0x03FC0504,
0x0004FCF6,
0xFD040BFB,
0x060B0208,
0xE80703F7,
0xE4F7C9F1,
0x25F2E5DE,
0xFEE6FB2F,
0x01D914F4,
0xF73A1804,
0x1312F1F6,
0xEFE4F509,
0xF4F60EF0,
0xE000E0F8,
0xF7FB08F4,
0x1BECDCEF,
0x02F8FF05,
0xE5F5E21D,
0x07E4CAD6,
0xE5FEF1EA,
0x220BFAE6,
0x0D0C08EE,
0xE4DDEA1F,
0x0824301B,
0x0C190BFD,
0xFE04FC12,
0x11FBF2EA,
0x0C01DCE8,
0x0AF70B15,
0x0E041017,
0xF2F9ECF0,
0xE7F6EBED,
0x0C06E1DA,
0x231EFBFA,
0xF3FAF8CD,
0xF5DDFCFD,
0x0DF3D3E1,
0x00F3F3EA,
0xEBF2E4E8,
0xE419FBF8,
0x270408E3,
0x05F6FBE3,
0x3531FD28,
0x22EE032F,
0xEAF50A1F,
0xF8FF0BF4,
0xF3FA01EC,
0xEDFBFAE6,
0x17FD0A26,
0x12E7021B,
0xE31B0BF5,
0x151B0D39,
0xFE0418F6,
0x10EE16FB,
0xE90FF7F2,
0xF9F601E1,
0x00F7FEFA,
0xFCF70B00,
0x0618EDF0,
0x06EED7EA,
0xDDD8DF12,
0xFBF00A07,
0x0111F6FA,
0x12FBE2ED,
0x02F3ECF8,
0x00F1F5E3,
0xBE0002FC,
0xEAF5F1F4,
0xF7F8C7D6,
0xF1EEF1EE,
0x15F1FDF4,
0x150004E0,
0xE3C4D51D,
0xE9E31710,
0x0DF3E3E9,
0xFCF91508,
0x08170616,
0xFE13FD11,
0xF5F03409,
0xF325EDED,
0xEFFCEFE9,
0xFF02D6F9,
0xF40915D8,
0x06F7E200,
0x01FA0B02,
0x01EC0212,
0x0A1F040E,
0xF7200AFC,
0xF50BE6D7,
0x05D3E0DA,
0xDEF8D0DF,
0xCBCBB8EB,
0x2309F6D5,
0xFFF61807,
0x0E16FE0C,
0x010E1104,
0x0A090D1C,
0x020210EC,
0x07F8EC09,
0xFCFCF60C,
0xFD070702,
0x07F7FCFF,
0x0700F500,
0x000003FC,
0x20000401,
0x0FF61B16,
0x0CFD2C14,
0xEA0A17ED,
0xE3F2F8FD,
0xEAD2E9F9,
0xB8F7F7CB,
0xEAE7EFEE,
0xEF01F5E8,
0xFFF7ECF3,
0x06FBE8E7,
0x0500F4E3,
0xCED3BBE4,
0x19261DCF,
0xF40FF6F7,
0xE9FE2D02,
0x040CE9E0,
0xFBFAE7DC,
0x0914FFED,
0x003CF2D4,
0xF5EDF2F1,
0xF8F10BE7,
0xE102E2FF,
0xD6EBFE1E,
0xDE0008EF,
0xEB04D3C0,
0x16ECEAE8,
0x16FAF0F9,
0x0A0BE51F,
0x0ADD1509,
0x2204FCF4,
0xF103EFDD,
0xEA000E27,
0xFDCEEFE5,
0xE6FDE40F,
0xEB0E19DB,
0xF103D8D3,
0xF9E8DFFD,
0x1A3915C1,
0x061323EE,
0x1709FEFC,
0x14111B35,
0x130818FE,
0x1A0EF302,
0x2D2B00F6,
0x0F0E0A41,
0xFDFB1F0C,
0xFC3E0915,
0x2ADD0D04,
0xD5120DFE,
0x04FD02DE,
0xF6FEE9DE,
0xF1EBECE3,
0x20FEFBF3,
0xF814EC05,
0x17111119,
0x270E080C,
0x04E816DE,
0xF3090924,
0x1F262721,
0x310D0DFB,
0x020C0B24,
0xF704F119,
0x222C0C18,
0xDEEFE51B,
0xDDFE1DE5,
0x0414DDDD,
0x01D8D9E8,
0xE41B0BF3,
0x1209D7D5,
0x1C030903,
0xEBFBDF0F,
0x01DEF6F0,
0xE8DFD707,
0xF6DEDE0A,
0x11D1E5FE,
0x11F61320,
0xFBF40B12,
0xDCEB10ED,
0xC7FF07EF,
0xEB1DF2DA,
0x0A03E8C7,
0x03FA00ED,
0xF9F8C91B,
0x03E0F808,
0x0512FBEC,
0x04031112,
0xFA0918FC,
0xEBF0EAD5,
0xEE0402D9,
0x21F6E0F9,
0xDBE3FE0E,
0x13FD29F9,
0x092D23DF,
0x05FBFFFE,
0x0508FFF8,
0xFF0804FD,
0x0508F910,
0x0107FEFD,
0x0B090400,
0xF7FB0803,
0x16F4ECF0,
0x05F6E7C8,
0x0E1FEA02,
0x07200805,
0x07DB0DE8,
0xF30F0110,
0x292AEAB6,
0x0FFFE604,
0x1611FFEC,
0x1714181E,
0xCBF0090D,
0x1114E40B,
0xFA04F3F9,
0x1B13E8EE,
0x250AF9EE,
0xDAEFE913,
0x06080BDB,
0xFD1EFEF4,
0xC10DECEB,
0x0BFC1606,
0x13F3EFF0,
0x0A02010E,
0x1701FF2B,
0xF800F607,
0xD2ACE8F4,
0x011D11F1,
0xFBC3DAF1,
0xF9EAE303,
0x02F2F11F,
0x01C5E105,
0x071AEBFC,
0xFCF6E7E8,
0x09F0FBEB,
0x15F3141D,
0x14262304,
0xD71DFD1B,
0xFA1A1504,
0xE204F0F2,
0x1B11DAC8,
0x09F3E820,
0x2B0DFDFF,
0x12FB06DA,
0x0816EE0E,
0xBEE20BFC,
0xE3FBF6DC,
0xEBF207E2,
0xFE26FD2D,
0xF5D1F20D,
0xEDF02E0A,
0x0B1103E9,
0x03E1F7F3,
0x08DAF4EA,
0xC7F1F90B,
0x0B0EF8FD,
0x201FFD0B,
0x3A1A0E07,
0xF6D9E4DC,
0xEFF1F913,
0xDFB6F502,
0x1BE1041B,
0x1202F606,
0x18E7FD0D,
0xF703EF0C,
0x2914FAF4,
0x25EEF5F6,
0xF6F4D71A,
0x1A0EF6CE,
0xF518F3FE,
0x00E7F5EF,
0xE1110409,
0xE5F70FEA,
0xF6FE0CFB,
0xF305FAEB,
0x0F080E09,
0xF20C0F27,
0xF8FBEBF6,
0x0EF2ECC5,
0x040405FC,
0xECF7E8EC,
0xF61EF012,
0x0714FAEE,
0xF701F8EA,
0xFB0FE00F,
0xFBF1FAF0,
0xFCF0FA1A,
0xF9FEF9FC,
0x1011F0E7,
0x01FC040C,
0x100CFF0E,
0x0CFE14FB,
0x000BF705,
0x0617FCFE,
0x0B0D1D13,
0xFE0502FC,
0x04FB00FE,
0xFAFFF700,
0x0002FB05,
0x0100FA06,
0xFB0503FD,
0xF407FD04,
0x0100020C,
0x07F5EDFD,
0x311208FE,
0xF9FBFE18,
0xD40209FD,
0x110D02E9,
0xF9F80114,
0x0C0EDCFD,
0x0505FF01,
0xEB020101,
0x07FA0DEF,
0x05061307,
0xF6E7E619,
0xFEF917FF,
0xE91CF3F0,
0x0CE106FA,
0xFEF8FE07,
0xF4000208,
0x290009F7,
0xFBF1000D,
0xFC081AFA,
0xFD0B0BF7,
0x05FE0BFA,
0x01F8EE02,
0xEFF10FFA,
0xFB0505F5,
0xF5F9100A,
0x03060800,
0x1CF70D0B,
0xEBFEF5F0,
0xFB0902FE,
0x0CFAFFF3,
0x2B0909F6,
0x0308F707,
0xF0FA0DE8,
0x111913EB,
0x19F10C09,
0xFAFB0101,
0xFFE7ED11,
0xF9FD03F1,
0x0602F010,
0x11EAFE10,
0xF7070FF3,
0x0109F70D,
0x04F7F4FC,
0xEEF71405,
0xFD09FBF0,
0xFCE2F1EA,
0xF8FCF407,
0x00F6EA1A,
0xF7121714,
0x22141316,
0x31D903F4,
0x0AFDFCFF,
0x1BF80628,
0xFA081934,
0x02080B04,
0xFF090533,
0x151435F5,
0x0F3413FD,
0xFAFA00FA,
0x010708F5,
0xDCEAEF17,
0xF50CECE0,
0xF6FBE8FA,
0x05FCFFF7,
0xFC0B19FD,
0x0A05FEEE,
0x02F006F7,
0x1907FAFD,
0xF0F21314,
0xF50E16F6,
0xFFFFE9FB,
0xF403F7FD,
0xEF041905,
0xFBFA02ED,
0xE6F3F4F7,
0xFF06F700,
0xE8F4F5EA,
0xF4ED03F3,
0xFBFF06E6,
0x23F2F6F3,
0x06F4F72C,
0x14042F17,
0xDAF8FAF9,
0xF2CFD9E2,
0x10FBE5E8,
0xFD1B1207,
0x0B0719F9,
0x0006E80A,
0xF8F80EF2,
0xE61EE618,
0xF3F606FD,
0x010114FF,
0xFD01FE06,
0x0402FDFF,
0x05FDF708,
0x0506FB00,
0x010204FA,
0x11F9FDFA,
0x021AF3F5,
0x1705E4F9,
0x05160156,
0x00F62B1C,
0xF707F1E7,
0xEBF6F60C,
0xFE1502F2,
0x1D0F1C16,
0xDFFDDCFB,
0xDDD9E2B1,
0x0A0BF4EE,
0x13130F1F,
0x061710F8,
0xE52003FB,
0x0D181107,
0x16F3E3F6,
0xF7F7E8EB,
0xF9EBE903,
0x0D11FC05,
0x0C291B14,
0xFF09FD2C,
0xE8C6170E,
0xF50820E8,
0x03F2E7E0,
0x041B0C13,
0xDC0911FE,
0x2207FC10,
0x08E40EE6,
0xEA08F806,
0xFE13F906,
0xE2E318EA,
0xF303F0F2,
0xDA05FBFD,
0xEA030507,
0xF0E8FCEE,
0x05250AF9,
0x0B040E04,
0xE2011CF3,
0x0E0109EC,
0xFFF7C4EF,
0xF8F118F2,
0xFFFAFAF6,
0xF8F40AE2,
0xF6FCEFF2,
0xFBE5FFFC,
0x0F06F1FB,
0xFC1B0F0A,
0xF4D0040D,
0xF40FEEFB,
0xF40501F5,
0xF3F90AF7,
0xF10FEFF6,
0x15FAF6D0,
0x14FE00EA,
0x05F10F0D,
0xE804F311,
0x1B2D242C,
0xEDFC15E4,
0xE80ABBD5,
0x19DACCF2,
0xFAFFEB03,
0xECE6F3F3,
0x14191CEE,
0xFEF5F9FE,
0x18130FEE,
0xF3E3D1ED,
0x000FF9F1,
0xEAFADF02,
0x03FF0A0D,
0xFFE90102,
0x1A16ECF9,
0x02F62814,
0x1403F7EB,
0xF1FDE613,
0x140A08F0,
0xFDEBDEE4,
0x23FAE2F1,
0xFF0F0A24,
0x03F81A27,
0xF8F8EEDE,
0x060801EB,
0xFEFA00EC,
0xFCFCEB11,
0x140A1B09,
0x101F0AEF,
0x01140505,
0x1304101B,
0xEAF8D415,
0xEFFB19E9,
0x0A040AF1,
0xEFF4F4E9,
0x1C07ECDB,
0xBDD6CF0C,
0xF901E0F5,
0xFD07FB05,
0xFFF8FCFC,
0xFB06FCFB,
0x0702FCF9,
0x00F9FC02,
0x15050308,
0x17F9FB07,
0x0B00100E,
0xFC121707,
0xF8FB00FE,
0x0EFCFCEF,
0x1A0C1505,
0x250CE5EE,
0x09ECCD3A,
0x191E2D2D,
0x15010D00,
0xF9FCF706,
0x0E08ECFD,
0x04F6FBFE,
0xEFEC11FC,
0xF13138FD,
0x1A1A0AF2,
0x02040D10,
0x02FBF8E4,
0x0E01F9F4,
0xE10410F5,
0x2828FFD5,
0x492FF0DC,
0x0DF3EE19,
0x0401EA19,
0x07F2010C,
0x2C0CF3C8,
0x01F6F9F2,
0x190402F9,
0xFB05BEDF,
0x00EDEDE6,
0x0D17E80B,
0x0CF6FAF5,
0x170D061D,
0x0E16361B,
0x0504080A,
0xE5050A10,
0x1B0DF9EA,
0xE31B10E6,
0xFF0AEFF9,
0x03021AEA,
0x08040316,
0xF2F01B06,
0xB4E9FC03,
0xEEECBCB5,
0xECC2D9F4,
0x11E1FBFC,
0x1E2F230C,
0x331B071B,
0x0406FF3B,
0xF5F32D22,
0xE4EFEEF8,
0x0422F6F0,
0x06F4E1C7,
0xDADBE5F4,
0xDCF3F8F1,
0xE806F8DC,
0xE40B2202,
0xDE0800DE,
0x02EFC0E7,
0xFFCFCAF0,
0x00FCEFE9,
0x05EFEE1A,
0xF7F8EB14,
0xE4E9FEE8,
0xE329240D,
0x001900ED,
0x08020E0F,
0x11F418DE,
0xF2FDE01E,
0xDE10EEDF,
0xEA00FFF5,
0x1320F7FA,
0x16080D11,
0x2729EFF7,
0xEBF00710,
0xE90607FD,
0xF6290D04,
0x09200FD4,
0x16FF26EC,
0x10190C27,
0x072D1604,
0xE6F10302,
0xE0E9E7F6,
0xDBD1F7E3,
0xD5E4F60B,
0x0C202207,
0x00E5EDEF,
0xF5E90D16,
0xF41AD5DC,
0x0AF5E0D9,
0x1FE6DD16,
0x10FCF5F5,
0xEAFF0F0F,
0xFDFE22E3,
0xF80407FE,
0x03FCF902,
0xFE0204FB,
0x0500FA06,
0xFF00FB04,
0x08020501,
0xFAF5EFF4,
0xFED8D8D7,
0xF9F6ED03,
0xFBC5FBF2,
0xD401250A,
0x1300FAFA,
0xFB09F3E1,
0xFBFCDEED,
0xF8C3D5F7,
0xBFE22917,
0x06F916EC,
0x00EBF7F2,
0x01F2FC1A,
0xF6E70806,
0xE80AE9EC,
0xF6E5E6CF,
0xEFFF160F,
0xFB01F509,
0xEA18EEF7,
0xFAEE0906,
0xC71415EF,
0x1417FE09,
0x04EC06D3,
0x001BECF6,
0xF10508E8,
0x050202E7,
0xCFE4F9E9,
0xCBDC00E3,
0xD6E7C1EF,
0xD7FDFEFA,
0x130FEBD6,
0x18FC05F7,
0xF6E2EF18,
0xD8E7000F,
0x03E20306,
0x1F0CF4F3,
0x20FFEFE0,
0x23E9FDE6,
0xF6041B15,
0x18162218,
0x19081304,
0xF413FE0C,
0xF5020301,
0xE2F4D3F2,
0xF12A1903,
0xFF0D0EF9,
0x06110B05,
0x392B05E8,
0x2A03DD09,
0x1EDE021E,
0xE1E7C6FF,
0xEFE8EC0A,
0xF5F9E3FD,
0x1FEB1513,
0xF81F1E1C,
0x0705FBEB,
0xC8E60DFA,
0xD61D1A03,
0x081AD7DC,
0x18F0EAE0,
0x0B011019,
0x07E112F4,
0x05F81327,
0xDACD111A,
0xE4090201,
0xE8CAF1EE,
0xEB07FDF2,
0x0B0815D4,
0x0DFBE412,
0x04FD0AF5,
0xEEFD13F6,
0xF3EFF4FE,
0x0E070BE7,
0x0F1A00DE,
0xFFEFF70A,
0x010B180A,
0x0BDDD6E6,
0x16F8F40D,
0xEBD9E015,
0xDCE91618,
0xFAF6F2ED,
0xF3F3DDF5,
0x171019E7,
0x010906F7,
0xDC130204,
0x16FAF3EA,
0x04E8F800,
0xF4E7FC0C,
0x001400EA,
0x1211110F,
0x02F301F7,
0xF6E1F005,
0xFBEFF514,
0xFCFD010A,
0x0101F907,
0xFD0300FB,
0x00F9FBFF,
0x0001FEFE,
0xFA02FC04,
0xE2FBFF02,
0xF7F8E9E4,
0xEBEF03F2,
0x1A0911F3,
0xEFE1E6FE,
0xEB0FE607,
0xF1E6D6E4,
0xFAFC1406,
0x131303F7,
0x04F1F9E1,
0xFF1B12ED,
0xF3EEF60A,
0x06011B09,
0xECDED01B,
0xF6F803F9,
0x18EEEFE7,
0xF7F5F90B,
0x120D0705,
0x0304FCFE,
0x041711FF,
0xDBF5F900,
0xE9E9F0FE,
0x00DF06EA,
0xF0F4FC0E,
0x08090B1A,
0xEDE0F900,
0xE8EFF5FB,
0xEAEC0CF9,
0x0C0802F4,
0xF6090F0D,
0xFAE8EFED,
0xF3E30E0B,
0xF72205F3,
0xF81807EC,
0xF3D7F505,
0xFE100403,
0x19FEE0FF,
0xFDF1F60E,
0xF811F018,
0x16F5E50B,
0xEEF502FE,
0xF4F7EAEF,
0xFDE9F50B,
0x04010212,
0xFCE41412,
0x0306FFFC,
0xE7F7FE19,
0x02020014,
0x09FEE8F8,
0xEBF51B28,
0xF5231014,
0x16EDEEF4,
0xEFF2F9F6,
0xF0F01405,
0x0401E6EC,
0x0BE4EFEA,
0xE2F0FFFB,
0x05FC010E,
0xF5FBFFF6,
0xE7D00F05,
0xE9F209F7,
0xDEDFE2F5,
0xE0DD06F5,
0xF5F5EDEB,
0xF7DFF60A,
0x0E01F8F4,
0xE2EB0E13,
0x21111010,
0xF70B0416,
0x08EA27FC,
0x0AFCF4F7,
0xFC06FC05,
0xF40D0907,
0xF70CF7E2,
0xF5002006,
0xEF0D0DFB,
0xF501E5F1,
0x0EFF0D07,
0x09261B00,
0xF7F6FAE0,
0x0807F3ED,
0xFEE8FFFA,
0xFB061A04,
0xDAD2CD00,
0xF9CF0F08,
0xF5101604,
0xED0C171F,
0xF00C1116,
0xFA0BF2F4,
0x0C0AD3DE,
0x1EFA03E1,
0xE2EEE005,
0xEC02F5F8,
0x221DEF29,
0x0201200F,
0x060A0201,
0xFDFD0901,
0xFB03FB0D,
0xFA070CFB,
0xFA0408FE,
0xEFFB04FE,
0x03171003,
0xF8E5F3DB,
0x0EFAE2D9,
0x251B0D29,
0x17CFF700,
0xF7E40F1D,
0xE9E6C0F1,
0xFBF8E4EB,
0xFDEA1303,
0x00F9FF0C,
0xCFF6FC11,
0xDDEC0927,
0xF9F0DAE9,
0x2001FBF9,
0x13DED6FA,
0xE1B2FF2B,
0xC3E22717,
0xECF2EAFD,
0xCAD225FD,
0xF82213DF,
0xDFEE0BEE,
0xD1031115,
0x150F0FCE,
0x09FF0E06,
0x07EB1D1B,
0xF2212126,
0x02FC0BF6,
0xD1D50F01,
0xEDED00FC,
0x05E4F108,
0xE4E50E1F,
0x13E9D6D2,
0xF618F915,
0x09F6FBEF,
0x18D7060A,
0xF9012F17,
0xD5E8E9F4,
0xCAC0C7FE,
0x2405F9EF,
0xFDEF00FD,
0xF815EA16,
0x2DEEF303,
0xEED9FC22,
0xC4DD4321,
0xEC0B0ED7,
0x1215DADC,
0xE7E7E406,
0xF01523FF,
0x1417D5D1,
0x03E1F4E5,
0xF4EBF70E,
0x1DFF0714,
0xE1E20610,
0xECF416F1,
0x08F8DDDC,
0xE703FF0F,
0x00F6E4DB,
0xE703FCDD,
0xDBF2EBE6,
0xADEDF6F9,
0xFB070FF5,
0x0D1D2DF7,
0xF3DDCDFC,
0x230310F6,
0x25E9D71E,
0xD9CC081A,
0xC11F1D1D,
0xECF2F1F0,
0xE4E006F8,
0xE6F6030B,
0x050712E5,
0xF4040706,
0x1B13FDEA,
0x03161201,
0x0309031C,
0xF80FFC05,
0x1FD7E8C2,
0xFCDFDA18,
0x240E160C,
0x1ED2ED0F,
0xDFC9F80F,
0xFB0601FA,
0xFDFB0100,
0x00070503,
0xFBFCF9FE,
0xFA0203F9,
0xFF0304FC,
0x03F50107,
0xFDFD0502,
0xF5FDF5FD,
0xF9FEFCFE,
0xFB02FAFC,
0xFCF8F502,
0x0006F8FC,
0xFB06FA02,
0xFA0700FB,
0xF8FA03FD,
0x030702FB,
0xFE0504FD,
0x01040803,
0xFAF6FAFF,
0x03FDFDFB,
0x04000307,
0xFA02FA01,
0xFA0203FE,
0x04080703,
0xF406FA07,
0xFA0403FA,
0xFCF403FD,
0xFD02FB07,
0xFAFC04FD,
0x03F9FDFA,
0x0603FCFA,
0xF900FAFF,
0xFC030104,
0x03FCF6FB,
0xFC040702,
0x0403FBFB,
0x030102FC,
0xFCF9FD01,
0xFBF8F905,
0xFEFA02F6,
0xF7FC01FD,
0x02F5F8F9,
0x04FAF2FE,
0xF8F8F6FE,
0xF8F902FB,
0xF903F904,
0xF8FA01FC,
0xFAF9F502,
0xFCF40003,
0xFC0206FE,
0xFBF7FDF9,
0xF5F7F9FB,
0xF8FAF600,
0xFC01F5F9,
0xFBFA01FB,
0xFEFCF7FC,
0xF3F5FEFD,
0xFF0503FE,
0x0100F8FF,
0xF506F6F8,
0xFDFCF8FF,
0x040302F8,
0xFEF90201,
0xF5FBFFF9,
0xFAFFFB03,
0xFD030400,
0x04FF0100,
0xF800FC00,
0xF702F5F3,
0xF50205F6,
0xF9FBFE02,
0x0400F6FA,
0xFBFF05FA,
0x05F702FE,
0xFFFEF504,
0x06FCFEFF,
0xFDFBF905,
0x02F903FF,
0xFEF6FCFB,
0xFEFBFFFF,
0xFFFB0106,
0xF8FE0200,
0xFEFF0601,
0x0601F706,
0xFAFD0402,
0xFD01FCFD,
0xFA010400,
0xFAF605FC,
0x01FA04F8,
0x0004F8F9,
0xF8FD00FA,
0xFAFC01F8,
0xF40300F9,
0xFB0401F9,
0xFBFDFA04,
0xF7000304,
0xFCFEFCFF,
0x030101FA,
0xFAFCFE04,
0xF60A1D1C,
0x161917ED,
0x0A28DE0D,
0xE0ECFB0E,
0x3108D4D8,
0x08FFF3DF,
0x12EB0C3D,
0xFBEDECE4,
0xFD0F1719,
0x11350510,
0xE9E9FF1F,
0xC4060EF4,
0xFB030EDA,
0xFDFD04F5,
0xFDFFFC03,
0xFF00010A,
0x07FF02FC,
0x04FCFEF8,
0x020405FD,
0x2707DF09,
0xFCF81117,
0xF9F3E31C,
0xECF7140D,
0xCF4B16F5,
0x310FD6C2,
0xEFFD031F,
0x17070A01,
0xFC1CE7F0,
0xF216F8DB,
0x22FCE0FC,
0xF7071F0F,
0x01ECE11C,
0x0A0AE5FD,
0x03E5F809,
0x2A150709,
0x0CE8EEE2,
0xFF07EA29,
0xE6062E23,
0x0E000C03,
0x05F41313,
0xDFFC09F2,
0xDDE3F611,
0x13171EFD,
0x0B0B0622,
0xD70A0C03,
0x0D021003,
0x0B190913,
0x1E0B2305,
0x0D011217,
0xF903FCFD,
0x0C14F6F6,
0xD6E10704,
0xDBFDF701,
0xE20814E0,
0x291FDDCF,
0x1311151A,
0x1FF4FA2E,
0x0C19111F,
0xF40E3710,
0xF9FCDFDD,
0xE6B902F9,
0x102200FB,
0xE901F714,
0xFC042802,
0x152814FA,
0x1E21EE13,
0x06CFE9FA,
0xB9AEFA00,
0x0A1308F4,
0xF7E8E7E7,
0x12F4DEFF,
0xE5F62609,
0x163CFBF5,
0xCE0C03D9,
0x0EDEB0D4,
0xEDD7E31B,
0xF60706E9,
0x09DF070A,
0x0C100F02,
0xD0FBE325,
0xC9C6CDE4,
0xF9F7F8DF,
0x0F12F902,
0xF6F1EAED,
0x20E8F50B,
0x1DF400F1,
0x0E0AF423,
0x02FA3726,
0x1F11F5FD,
0xFFF0FD15,
0xFB0616FB,
0xE8EBDA06,
0x03D62114,
0xF8311207,
0xE0FAE9E8,
0x16090F14,
0x13272714,
0xFC0DEE07,
0xD80112F1,
0xF9EBE3BB,
0x1DFEEFF0,
0xFEFFFB03,
0xE5E4E408,
0xFBF40F11,
0xF7ED0B02,
0xFCFD0302,
0x030927FC,
0xF4FA0402,
0x03010211,
0x04EAF006,
0x130FEF04,
0x1BFFEE03,
0xF9FCF7FC,
0xFF050601,
0xF905FD01,
0x02FEFA03,
0x03FAF9F9,
0x06030605,
0xEF03FDFA,
0x1C1205FA,
0xFBF71DFD,
0x1519EF07,
0xF8F0FE0D,
0xF10C2D21,
0x0B07FCF4,
0xEAFD0200,
0xF0F3E3E3,
0x0FFD2201,
0x070107F5,
0x1E291D00,
0xDFE0F7DC,
0x02F6F3FA,
0x13FD08F8,
0x01FBEDF6,
0x04FE0CF0,
0xF1EFEDFE,
0xDBE4F9DE,
0x17F913E9,
0xEAEC0613,
0x110413F4,
0x0C13F809,
0x080A0305,
0xEEE5F1E8,
0x0BF1FA08,
0xF7E7EC1A,
0x261913FB,
0x0A1525ED,
0xF2EFEDF2,
0x03EAE2E4,
0xDBE8F302,
0xF4EFF1F5,
0x1316E5F4,
0xF813FBF3,
0xF3F7F701,
0x0C1A160E,
0xFBDFE3E2,
0x08F02918,
0xEFF5F0F6,
0x00FF0EF0,
0xF9FEE8F7,
0x12FFF7FC,
0x09FEFE0B,
0x2A0E19F5,
0x1AF7FCFD,
0xF7F70118,
0x1506EAEE,
0x1CFE0903,
0x0905FFF6,
0xDFE9300C,
0xEBE008EB,
0xF60C15F6,
0xE4F9F1FA,
0xFAE90413,
0xFD0C0FF5,
0x0B11FC28,
0x0BE41210,
0xFAEF0308,
0xF1000601,
0xFCF3F2F7,
0xECF3FFF1,
0x0501ECF9,
0xFBE9EEFC,
0x0FF600E7,
0x2D1CE7F6,
0xFEEC1008,
0xF600EFF4,
0xE5FC0FF9,
0xF5F51301,
0x1210231C,
0x102E2C08,
0x1F23273C,
0x09F8FA30,
0x002F0110,
0x02301321,
0xF8F1EA0E,
0xFCF42D03,
0x00EFD8F4,
0xFCFCFAFE,
0x01F613E8,
0xF1F71206,
0xF6F1E6DB,
0x09F8F9F2,
0xEEE3CAD7,
0xFCEFCEE1,
0xD714FDED,
0x181F0CED,
0xDFEE08B9,
0xE1E0DC08,
0xF3F006EE,
0xFECEDF0F,
0xDDEF2316,
0xDA0D33E4,
0xFAFDF4F5,
0xFB020BFB,
0xFE050205,
0xF901FC04,
0xFAFAFF06,
0x0F0C0704,
0x1004F9FD,
0xFEFEED00,
0x05F2FFF5,
0x0803FB03,
0xF503F8EC,
0xECC0F801,
0xF5310EE6,
0xD7FEFEF9,
0x02F9F9E6,
0xB6E4F7CE,
0xF4FC120A,
0xA5042FFF,
0x00FCE6E5,
0x0B1B21F8,
0x1011F005,
0x15EDE4EE,
0x181F1A24,
0x132CEEE0,
0x1C110D00,
0xF7F5C4E6,
0x0E0AE6FB,
0xF4B9D914,
0xF7DBFD1F,
0x15F02426,
0x0310E5F8,
0x1AA0B9E6,
0x1217091B,
0x17ECE018,
0xE1F6D916,
0x15DE1126,
0xE2D8F9FC,
0x16FFE4EE,
0xEEFCFE13,
0xDDCFE2F1,
0xFEF2E9D3,
0x03FB291B,
0xB21BF011,
0xF9FF04EF,
0xE1D80AF4,
0x141A15F3,
0x0EF8F015,
0x21FE2F27,
0x0E24F4F6,
0x260A0C1E,
0xDEE6EBF5,
0xD41305FF,
0x0A0412DA,
0x001AEBF7,
0xDCE82501,
0xF7083818,
0x021D26F7,
0x09FBE9E8,
0x02E3E0D6,
0xD9F5F005,
0x00FBEBDA,
0x031013E5,
0x1D28FEDA,
0x0BD5CBE8,
0xD8E4EF29,
0xE4DE1616,
0x2FDEE8E5,
0xF1B7E604,
0xDCEAF80F,
0x16291F1F,
0x1024F40B,
0x05EFE0FF,
0x1829FD2D,
0x051DF3E7,
0x070D0BE2,
0x0E0ECCF1,
0xD821030E,
0x01EBFEEA,
0xEE1C1A07,
0xEFEDEEEE,
0x05F9FE08,
0xFBF70507,
0x01FEFAF9,
0x0B12EAE3,
0xDAE9FD14,
0xE509D405,
0xF004F613,
0x342C02E3,
0xE4F2EEEE,
0x0708F6E4,
0x1B351224,
0xF70CE720,
0xFB07F700,
0x09F20E17,
0xF6F31518,
0xF6EBE302,
0x130E2A02,
0x013C0204,
0x00EBFA2A,
0x1AFB0D0A,
0x0303EAF0,
0xFCF80601,
0x00010406,
0xFD0206F9,
0x0005FDFD,
0x02F9FFFA,
0x10010705,
0x1013F10D,
0x0DE7F6EC,
0x2B28FC0C,
0x0E0BEFEC,
0xD9FBF307,
0x411AECED,
0xF8040DF8,
0x2A2205F7,
0x2817EDFC,
0xF8EC2001,
0xDFEFF50A,
0xF3FD1726,
0xCECADE08,
0xF7DE10FC,
0xF4F2D6DE,
0x0CFDFEE8,
0x0E1C0601,
0x0EECF60F,
0xFA140429,
0x09F31CF6,
0xD318F6EA,
0xE40CECDF,
0xF2DFCDFE,
0x17E503EB,
0xEEDEDE02,
0xDEF70B12,
0x21FF1804,
0x16F50510,
0x22F9F922,
0x18EBF913,
0x160A0D12,
0x2405FEE3,
0x221B2EFF,
0xF2EBECF3,
0xF8E200FA,
0x1C05D9EC,
0x0CEBE1F7,
0xF9FFDC08,
0x0E08F306,
0xE3DC14FD,
0xEADCE7DA,
0xF5EEEAED,
0xF4EE110F,
0xFFF1FC26,
0xEAF5ECE1,
0xEC04F0FC,
0x0911321D,
0x0A1226E0,
0xDBE01212,
0xF72F1DFD,
0x0BDAEDF1,
0xE405EBE5,
0xF6F91A12,
0x042FF7F6,
0xEBF805E6,
0xF9EB26F7,
0x12F5200B,
0xE7250AFE,
0x0BEF180F,
0xF61B0F15,
0x0A02FF09,
0xEC05E929,
0xD7E2FCF4,
0xFEECFEE8,
0xF1F6E808,
0xF0F016F1,
0x2D1201FF,
0x1AEE10FC,
0xF7F6172C,
0x05FFECE8,
0x0AF30710,
0xEDFA0008,
0xE41609FF,
0x05EE0E06,
0x0A3A2813,
0x01F9DDF3,
0x3710F6F9,
0x19140DF3,
0x1B13F207,
0xDAF4F8F6,
0x07E2FE0A,
0xFFFDEAEC,
0xE7C2EED9,
0xB8C2CACC,
0xC1E1F8F6,
0xC704EED6,
0x082507E9,
0x03FCF706,
0x0A03CB30,
0x15FEF5F8,
0x1B0DD00D,
0x1CED0806,
0xD8E9E623,
0x04F90AEE,
0xFEFFFD01,
0xFC000205,
0x0402FD03,
0xFB03FEFC,
0x0505F9FA,
0xDFFCFA00,
0xEEECE3D7,
0xFFFFC8A4,
0xE8E2D2D9,
0xF8CEEBF4,
0xE9C5E809,
0x05110EE5,
0x0417D7D3,
0xF4E0C2E1,
0xF2C8D90C,
0xBDC3001D,
0xF002FCF1,
0xEFF62714,
0x20DBF4DF,
0xFAE10914,
0xCFDDF0E6,
0xEAE4DCD7,
0xE306FEFF,
0x010014FA,
0xFBDE03C9,
0xD1E8FF02,
0xEE3A12E1,
0x0E1EF5E9,
0x09FB26CC,
0x141BE90B,
0x071D2021,
0x1503F2CF,
0xF1FDF001,
0x04F6F5B6,
0xE807E2C1,
0x031728E9,
0xFB0C150F,
0x1401ECD2,
0x1ACECAF7,
0xDFE7F722,
0x1DC5F603,
0xFAF818FD,
0xF9070819,
0x21F100DF,
0xDDF61202,
0xF0330BE1,
0x050DF6FA,
0xFB1A16FE,
0x291D0DE0,
0xE5E9F7E8,
0xF42623FF,
0x04F6FEF1,
0x0D01F3CE,
0x2800C9F5,
0x2FF6D6EF,
0x16DDE918,
0x07EB1E2B,
0xF2CE2B10,
0x1AFF1012,
0xF5011C25,
0xCBFE1323,
0x07F9D9D1,
0x0408F5FE,
0x19FDF616,
0x1722F20E,
0x182611F2,
0x140FFD09,
0x0DF4E4EF,
0x06EAEB15,
0xD8E6041B,
0xD9E9FDE8,
0xF8DEEBAD,
0xDBEAF412,
0x12FB00FF,
0xFD03DF0C,
0xF9EA00E7,
0xF1E9FCFB,
0xF8EADDF4,
0xF4F6F307,
0x0709F4DE,
0xF3DCE3EE,
0x0A0904F5,
0xCBF2EDF5,
0x0CFDD5F8,
0xDFBEFDFF,
0xC3F40D05,
0xDCE716EB,
0xEA04FDF1,
0xFB0D1AEB,
0xFC0F17E6,
0x2010DCF2,
0xD7011C15,
0xF30E3728,
0xC1ECD692,
0xCECFE2BC,
0xE1E2FF03,
0xC0C7DBEC,
0x0FF5FAE5,
0xBBC4D1EB,
0xFBFB05FB,
0xFF03F9FD,
0xF8FB0300,
0x00FDFEF2,
0xF9FA02F8,
0xFE04FC03,
0x0FFA0509,
0xE9ED050D,
0xE71E2B1E,
0xEE1F0EEA,
0xFF0AD3E6,
0x1BE5F308,
0xDAF31D16,
0x330F0119,
0xFA051B0C,
0xF90919F8,
0xFBFEFA00,
0x9DEA0312,
0xF806FF02,
0x0B1000D6,
0xD3D9F5FC,
0xCDFF3A1E,
0xF01719DA,
0x071AE602,
0x03271FD5,
0x1E2BC6DB,
0x0603FCFE,
0x04FFE0E9,
0x2714F000,
0x1D1CF12C,
0xE2E2060B,
0x1BBCD2EC,
0x02E5EB1B,
0x00050826,
0x1005F411,
0xEFCEF530,
0xCFD507F1,
0x191900E6,
0xF1FF0827,
0x2C1F1CF7,
0x2F100613,
0x1410EC12,
0xADD60220,
0xE4F2F5FC,
0xF901FFE5,
0xF8DCEAE7,
0xF5E8E2EE,
0x01F8292A,
0xFF281CF1,
0xBAEE020B,
0xFBE9DEC0,
0x0501FDF6,
0x07ECF6FD,
0x08FB150E,
0x1A20191A,
0x1E202233,
0xDE111F11,
0x15FAB4DE,
0xE904F8D1,
0xEC03BEE8,
0xC9B2F0D6,
0xDB0FFADD,
0x0D04ECE8,
0xDADCE5CF,
0xCCFAF1E3,
0x1FF8F8F1,
0xEFE3F4EC,
0x0004EAEF,
0x3116EFF3,
0xFE080A16,
0xD5EAF902,
0xD8FF0F04,
0xEF1F0EFB,
0xF007F018,
0x0C0E24BC,
0xFB03D0F3,
0xE9EB0000,
0xEB080A00,
0x0A00E203,
0xFF020BF6,
0x181CFB18,
0xE1EDF808,
0x13F5FEF5,
0x1112F601,
0xE302FBF7,
0x26FE0B1A,
0x221F101B,
0x17233527,
0xDAE2F0F2,
0x040701DD,
0x1A00E9EE,
0xF7E91025,
0xE7F0F6EC,
0xD4EC0313,
0xEF00F2EE,
0xFEFEFDFE,
0xEEE3F5EB,
0x1B0204F7,
0xFCF70C06,
0x0F151728,
0xF805F20E,
0x04FD00FC,
0xFC05FDFA,
0xFCFAFF0B,
0xFAFD0400,
0xFA0004FE,
0xF905FEFD,
0x01E9F5FB,
0x11ECFC12,
0x35231704,
0x05FDFAFD,
0xF0F30B0E,
0xC3CBF204,
0xFBEC0320,
0x101B18F0,
0xFDFDF50C,
0x061D101B,
0x23FEE5F2,
0xDCE7EA03,
0xF2000A0B,
0x07F4DFE1,
0xF5FBF20A,
0x1C080202,
0xE70F20F2,
0xCDC8C4EF,
0xF90A07E6,
0x0E0BE1DD,
0x01E31B27,
0xF81109FD,
0x0801FADB,
0x0AF9FC16,
0x21010515,
0x10F0DDF0,
0xE8DEFB08,
0xC9EE07EF,
0x0E1807E2,
0xEE09EC05,
0xD2DCFC14,
0xE80A1D08,
0x0904FBF0,
0x09FFFCF9,
0x1AFEFB13,
0x01031912,
0x04DEDAD8,
0x010C09F3,
0xFDDDFE04,
0xEF10191B,
0xEA1DFFF6,
0x03F1F1E8,
0x12E0D4F1,
0x0BF71419,
0x08F5FD22,
0xF411EB02,
0xDFED0CF0,
0xE2FEF4F2,
0x1412D4D9,
0xD9C6DDED,
0x0BF2F60E,
0xEA02F4F4,
0x08E6DC16,
0xF906FB0C,
0x22DAE0EE,
0xF005F615,
0xFEDFF4FE,
0xECEDEBFB,
0xE4F4F2E2,
0x04F2DF00,
0xFEEF0EFC,
0xFB152810,
0x00030F0D,
0x0BFD07E4,
0xF8FF041E,
0x0EED0712,
0xD20E03F2,
0xC6DCCE0B,
0xE70BECC2,
0xFDFD0A06,
0x1A161A12,
0x0CFEFB00,
0x06FFF819,
0xE8EEFBF0,
0xFBE7F5F7,
0xF403FAF3,
0xF2FE0300,
0x160D07E9,
0xF1F60117,
0xF9E4181A,
0xD8F6F202,
0xFB00F504,
0xFDFFFAFD,
0xF8F6FDFB,
0xFEFF03FD,
0xF7050405,
0xF6FDFFFE,
0x03FEF901,
0xFB00F906,
0x0104FC03,
0xFDFF0400,
0xFEFCF3F5,
0x04FD02FF,
0xF8FB0204,
0xFAFFF9FD,
0xFB020202,
0x00F80204,
0x040002FE,
0x0303FFFB,
0x040002FF,
0xF7FDFBFE,
0xFE060204,
0xFC01F7FE,
0xFCFDF800,
0x06FEFA05,
0xFE05FB03,
0xFDFE05FE,
0x03FBFAF9,
0xF90103FE,
0xFDFEFCFD,
0x06FA0405,
0x01020100,
0xF6FF0401,
0x02F9F8FE,
0xF8F80201,
0xF9F7FAF8,
0xFC0201FA,
0xF700FA04,
0xFA0707F9,
0x05FEFBFB,
0x0304F9FD,
0x030308FA,
0xFAF802FD,
0x00010101,
0x04F8FEFD,
0xFEFFFA02,
0xF7FAF603,
0x00FDF8FE,
0xF7FB02F8,
0xFFFB0002,
0xFFFA04FD,
0xFDFB03FC,
0xF7FA00FE,
0x06F7FCF7,
0xFCFFFB00,
0xF8FB03FC,
0x0002FC00,
0xF8F7FF04,
0xFDFCFFF9,
0x02F70602,
0xF70604FD,
0xF702FFFE,
0xFE04FBF8,
0xFDFB02F7,
0xF9F6F804,
0xFAFAFE00,
0xFD02FD03,
0xFC050102,
0x04FFFFF7,
0xF7FBFB05,
0xFCFEF4FA,
0x01FE02FB,
0x0400FFFE,
0x05F5F8F8,
0xFFFBF905,
0x01FDF308,
0x00F8F8FB,
0xFCFE03FC,
0xFB02FF02,
0x03FD02F7,
0x04FDFC02,
0xFEFBFAFC,
0x0101FBFB,
0xFCF704F7,
0x06FDFC05,
0xFC0603F9,
0x02FDF903,
0x03FA0601,
0xFA010200,
0xFE0102FF,
0xFD00FB03,
0x0304F9FB,
0xFDF80304,
0xF7FF03FB,
0xF7FD0100,
0x00FDF7FE,
0xF9F800F6,
0x03FEFCFB,
0x02F600F8,
0x04FFFA00,
0xFFF800FB,
0xEE0505F5,
0xFFF301E7,
0xE9F9F4FB,
0x06F602FB,
0xEF07FB02,
0xE9F4F405,
0xFA00000E,
0xFEFB1107,
0x03F90700,
0xF4FAE9F6,
0x00F8F4FE,
0x00FFF5F8,
0x03FFFDF9,
0x02FF0603,
0xFC020100,
0xFBFCFA06,
0xFAFFFEFE,
0x02020005,
0xFC010208,
0xFAFAE8EF,
0x0405F8F5,
0xF6FBFAFC,
0xF2F2FDF4,
0x00FBFDFA,
0xFAF20005,
0x05FE06F5,
0xF4F606F7,
0xFAFC02F3,
0x01F30C0C,
0xFBFB010A,
0x08FCEC03,
0xEEF503F9,
0x0DF6F5F1,
0xFE03020C,
0x0A0BFD03,
0xF4EFEEFC,
0xF2F5F901,
0xF7EFF7FA,
0xD802FC06,
0xFBFEFDEA,
0xF505FD02,
0xFEF1EDE6,
0xFDFAE6ED,
0xF3F0E7F6,
0xF4FB0D00,
0x04F007FF,
0x0801EB0A,
0x0405F3FD,
0xF004F8ED,
0xF704F6F4,
0xFA020507,
0xFDF30401,
0x0202F0FD,
0x02F20109,
0xFCF9F4F3,
0xFEFC08FC,
0x09EB02FB,
0xF6FB0B09,
0xFDF7F2F3,
0xFE08EAFE,
0xFDFFFD01,
0xF9FF0306,
0xFDF311F5,
0xF5FCF2FA,
0x01FAFC02,
0xF6F4FBE6,
0xF9F5FBFB,
0xF2F4F901,
0xF3F90CF3,
0xFC0D04FB,
0xFDFEF8F5,
0xE8F0FFFC,
0xF6F9FCEF,
0xEE000003,
0xFC0BFF00,
0xFDF801F8,
0xF8FEE108,
0xF2F1FDF6,
0x05EDEEFD,
0xFFF2FEF7,
0x0003F7F8,
0xF102010C,
0xF8FAF1F7,
0xF8F7FFF8,
0x05FDEFF9,
0xEEEAF3FB,
0x03FA03FD,
0xEFFDFFF7,
0xFC06E5E1,
0xFC09F7F8,
0xFBFD0802,
0xF9EBF7F9,
0x07F6ECF6,
0xF5F2EEFF,
0xF1EBEFF3,
0xFE06FEFE,
0xF00206FA,
0xFDFAFDF5,
0xF9FF0C0B,
0xEFF5F3FE,
0x02FAFEFE,
0xFBFAFC03,
0xF70005F7,
0xFDFA04FC,
0x04FEF7FB,
0x0002FCF9,
0xFDFBF905,
0xFA060402,
0xF9FC0101,
0x03F803FD,
0x07FEFEF7,
0xFFFE0403,
0x050601FB,
0x03FA0503,
0xFB000301,
0x03F905FA,
0x07FA0903,
0x0106FBFF,
0xFAFA0309,
0xFDFC0300,
0xFDF906F7,
0xFDFB0102,
0x0404FFFC,
0x04F8FEFD,
0xFFFBFB04,
0xFFF905F8,
0xFC0100FD,
0xFBFC0604,
0xFEFD05F9,
0x050205FF,
0xFC00FAF7,
0xFB020304,
0xFF020503,
0xF8FCF705,
0xF5F80201,
0x04020101,
0x000303FA,
0xF6FEFBF7,
0xFBF9FB02,
0xF8FEFBF8,
0xFC04FA00,
0xF50104FB,
0x04FD0002,
0x04F9FDF9,
0x05FE05FF,
0xFBF90507,
0xFCFEFCFD,
0xF8FBFE00,
0xFAF8FDFF,
0xFAF9F9FA,
0xFC050303,
0xFDFEF702,
0xF6FD0307,
0x03FEFEF9,
0xF8FD02F6,
0xFCFF04F7,
0xFFFCF8FA,
0xFBFFFD02,
0x04F70200,
0xFA08FA03,
0x000200F7,
0x01FE05F8,
0xF70000F9,
0x0500FDF8,
0xF8F7F905,
0x03F9FCFB,
0x020001FC,
0x01F801F9,
0xFAF90101,
0xF6FBFDF7,
